{
  "version": "1.0",
  "truncation": null,
  "padding": null,
  "added_tokens": [
    {
      "id": 0,
      "content": "[PAD]",
      "single_word": false,
      "lstrip": false,
      "rstrip": false,
      "normalized": false,
      "special": true
    },
    {
      "id": 1,
      "content": "[UNK]",
      "single_word": false,
      "lstrip": false,
      "rstrip": false,
      "normalized": false,
      "special": true
    }
  ],
  "normalizer": {
    "type": "Sequence",
    "normalizers": [
      {
        "type": "NFKC"
      }
    ]
  },
  "pre_tokenizer": {
    "type": "ByteLevel",
    "add_prefix_space": false,
    "trim_offsets": true,
    "use_regex": true
  },
  "post_processor": {
    "type": "TemplateProcessing",
    "single": [
      {
        "SpecialToken": {
          "id": "[UNK]",
          "type_id": 0
        }
      },
      {
        "Sequence": {
          "id": "A",
          "type_id": 0
        }
      },
      {
        "SpecialToken": {
          "id": "[UNK]",
          "type_id": 0
        }
      }
    ],
    "pair": [
      {
        "Sequence": {
          "id": "A",
          "type_id": 0
        }
      },
      {
        "Sequence": {
          "id": "B",
          "type_id": 1
        }
      }
    ],
    "special_tokens": {
      "[UNK]": {
        "id": "[UNK]",
        "ids": [
          1
        ],
        "tokens": [
          "[UNK]"
        ]
      }
    }
  },
  "decoder": {
    "type": "ByteLevel",
    "add_prefix_space": true,
    "trim_offsets": true,
    "use_regex": true
  },
  "model": {
    "type": "BPE",
    "dropout": null,
    "unk_token": "[UNK]",
    "continuing_subword_prefix": "",
    "end_of_word_suffix": null,
    "fuse_unk": false,
    "byte_fallback": false,
    "ignore_merges": false,
    "vocab": {
      "[PAD]": 0,
      "[UNK]": 1,
      "!": 2,
      "\"": 3,
      "#": 4,
      "$": 5,
      "%": 6,
      "&": 7,
      "'": 8,
      "(": 9,
      ")": 10,
      "*": 11,
      "+": 12,
      ",": 13,
      "-": 14,
      ".": 15,
      "/": 16,
      "0": 17,
      "1": 18,
      "2": 19,
      "3": 20,
      "4": 21,
      "5": 22,
      "6": 23,
      "7": 24,
      "8": 25,
      "9": 26,
      ":": 27,
      ";": 28,
      "<": 29,
      "=": 30,
      ">": 31,
      "?": 32,
      "@": 33,
      "A": 34,
      "B": 35,
      "C": 36,
      "D": 37,
      "E": 38,
      "F": 39,
      "G": 40,
      "H": 41,
      "I": 42,
      "J": 43,
      "K": 44,
      "L": 45,
      "M": 46,
      "N": 47,
      "O": 48,
      "P": 49,
      "Q": 50,
      "R": 51,
      "S": 52,
      "T": 53,
      "U": 54,
      "V": 55,
      "W": 56,
      "X": 57,
      "Y": 58,
      "Z": 59,
      "[": 60,
      "\\": 61,
      "]": 62,
      "^": 63,
      "_": 64,
      "`": 65,
      "a": 66,
      "b": 67,
      "c": 68,
      "d": 69,
      "e": 70,
      "f": 71,
      "g": 72,
      "h": 73,
      "i": 74,
      "j": 75,
      "k": 76,
      "l": 77,
      "m": 78,
      "n": 79,
      "o": 80,
      "p": 81,
      "q": 82,
      "r": 83,
      "s": 84,
      "t": 85,
      "u": 86,
      "v": 87,
      "w": 88,
      "x": 89,
      "y": 90,
      "z": 91,
      "{": 92,
      "|": 93,
      "}": 94,
      "~": 95,
      "¡": 96,
      "¢": 97,
      "£": 98,
      "¤": 99,
      "¥": 100,
      "¦": 101,
      "§": 102,
      "¨": 103,
      "©": 104,
      "ª": 105,
      "«": 106,
      "¬": 107,
      "®": 108,
      "¯": 109,
      "°": 110,
      "±": 111,
      "²": 112,
      "³": 113,
      "´": 114,
      "µ": 115,
      "¶": 116,
      "·": 117,
      "¸": 118,
      "¹": 119,
      "º": 120,
      "»": 121,
      "¼": 122,
      "½": 123,
      "¾": 124,
      "¿": 125,
      "Â": 126,
      "Ã": 127,
      "Ä": 128,
      "Å": 129,
      "Ç": 130,
      "Ê": 131,
      "Ì": 132,
      "Î": 133,
      "Ï": 134,
      "â": 135,
      "ã": 136,
      "ä": 137,
      "å": 138,
      "æ": 139,
      "ç": 140,
      "è": 141,
      "é": 142,
      "ï": 143,
      "ð": 144,
      "ā": 145,
      "Ă": 146,
      "ă": 147,
      "Ą": 148,
      "ć": 149,
      "ĉ": 150,
      "Ċ": 151,
      "ċ": 152,
      "č": 153,
      "Ġ": 154,
      "ġ": 155,
      "Ģ": 156,
      "ģ": 157,
      "Ĥ": 158,
      "ĥ": 159,
      "Ħ": 160,
      "ħ": 161,
      "Ĩ": 162,
      "ĩ": 163,
      "Ī": 164,
      "ī": 165,
      "Ĭ": 166,
      "ĭ": 167,
      "Į": 168,
      "į": 169,
      "İ": 170,
      "ı": 171,
      "Ĳ": 172,
      "ĳ": 173,
      "Ĵ": 174,
      "ĵ": 175,
      "Ķ": 176,
      "ķ": 177,
      "ĸ": 178,
      "Ĺ": 179,
      "ĺ": 180,
      "Ļ": 181,
      "ļ": 182,
      "Ľ": 183,
      "ľ": 184,
      "Ŀ": 185,
      "ŀ": 186,
      "Ł": 187,
      "ł": 188,
      "Ń": 189,
      "Ġa": 190,
      "Ġt": 191,
      "in": 192,
      "he": 193,
      "čĊ": 194,
      "er": 195,
      "re": 196,
      "st": 197,
      "on": 198,
      "an": 199,
      "at": 200,
      "Ġthe": 201,
      "Ġc": 202,
      "en": 203,
      "Ġo": 204,
      "Ġs": 205,
      "Ġan": 206,
      "ing": 207,
      "es": 208,
      "Ġp": 209,
      "it": 210,
      "or": 211,
      "Ġw": 212,
      "Ġand": 213,
      "Ġf": 214,
      "al": 215,
      "Ġb": 216,
      "is": 217,
      "Ġto": 218,
      "Ġm": 219,
      "Ġin": 220,
      "ou": 221,
      "Ġof": 222,
      "ed": 223,
      "Ġd": 224,
      "ar": 225,
      "si": 226,
      "le": 227,
      "ic": 228,
      "ion": 229,
      "ant": 230,
      "om": 231,
      "ent": 232,
      "ssi": 233,
      "Ġe": 234,
      "stant": 235,
      "ssistant": 236,
      "Assistant": 237,
      "ro": 238,
      "ct": 239,
      "Ġh": 240,
      "ut": 241,
      "Ġl": 242,
      "ve": 243,
      "as": 244,
      "Ġre": 245,
      "Ġis": 246,
      "et": 247,
      "ĠT": 248,
      "ser": 249,
      "Ġth": 250,
      "ll": 251,
      "Ġu": 252,
      "Ġn": 253,
      "User": 254,
      "ce": 255,
      "im": 256,
      "Ġg": 257,
      "ch": 258,
      "ra": 259,
      "Ġbe": 260,
      "Ġfor": 261,
      "ĠĠ": 262,
      "ly": 263,
      "Ġst": 264,
      "ation": 265,
      "ow": 266,
      "ĠA": 267,
      "ur": 268,
      "ĠI": 269,
      "ate": 270,
      "ol": 271,
      "ig": 272,
      "ĠThe": 273,
      "id": 274,
      "Ġpro": 275,
      "se": 276,
      "ith": 277,
      "ver": 278,
      "ot": 279,
      "ge": 280,
      "ld": 281,
      "ir": 282,
      "Ġon": 283,
      "am": 284,
      "ĠC": 285,
      "ay": 286,
      "Ġy": 287,
      "ĠS": 288,
      "if": 289,
      "Ġhe": 290,
      "put": 291,
      "Ġwith": 292,
      "Ġthat": 293,
      "ul": 294,
      "ers": 295,
      "Ġsu": 296,
      "ess": 297,
      "Ġcon": 298,
      "ri": 299,
      "ĠčĊ": 300,
      "ak": 301,
      "Ġas": 302,
      "Ġex": 303,
      "il": 304,
      "ĠW": 305,
      "Ġcan": 306,
      "Ġcom": 307,
      "Ġmo": 308,
      "Ġde": 309,
      "ad": 310,
      "Ġit": 311,
      "Ġyou": 312,
      "ab": 313,
      "ment": 314,
      "ure": 315,
      "Ġare": 316,
      "ter": 317,
      "Ġor": 318,
      "ain": 319,
      "In": 320,
      "qu": 321,
      "pp": 322,
      "ity": 323,
      "Ġen": 324,
      "ect": 325,
      "Input": 326,
      "Ġv": 327,
      "Ġwh": 328,
      "ive": 329,
      "op": 330,
      "um": 331,
      "Ġsh": 332,
      "ort": 333,
      "nd": 334,
      "Ġ1": 335,
      "her": 336,
      "Ġne": 337,
      "ies": 338,
      "em": 339,
      "ould": 340,
      "ial": 341,
      "iv": 342,
      "ĠD": 343,
      "th": 344,
      "ust": 345,
      "ĠH": 346,
      "ĠP": 347,
      "Ġr": 348,
      "od": 349,
      "pl": 350,
      "igh": 351,
      "Ġle": 352,
      "Ġim": 353,
      "Ġus": 354,
      "oc": 355,
      "Ġal": 356,
      "ac": 357,
      "ist": 358,
      "ĠE": 359,
      "Ġch": 360,
      "el": 361,
      "us": 362,
      "ĠM": 363,
      "ĠG": 364,
      "du": 365,
      "nt": 366,
      "ill": 367,
      "Ġwor": 368,
      "and": 369,
      "ine": 370,
      "ĠF": 371,
      "ence": 372,
      "iz": 373,
      "rom": 374,
      "ud": 375,
      "Ġte": 376,
      "Ġse": 377,
      "og": 378,
      "Ġab": 379,
      "Ġby": 380,
      "Ġinc": 381,
      "--": 382,
      "Ġimp": 383,
      "age": 384,
      "are": 385,
      "Ġha": 386,
      "ight": 387,
      "un": 388,
      "Ġwe": 389,
      "pt": 390,
      "ake": 391,
      "ĠB": 392,
      "Ġtra": 393,
      "Ġwas": 394,
      "ore": 395,
      "out": 396,
      "Ġpl": 397,
      "Ġsp": 398,
      "ag": 399,
      "act": 400,
      "os": 401,
      "per": 402,
      "Ġk": 403,
      "ions": 404,
      "ĠĠĠĠ": 405,
      "cess": 406,
      "ally": 407,
      "ff": 408,
      "ĠWh": 409,
      "ĠR": 410,
      "end": 411,
      "Ġfrom": 412,
      "able": 413,
      "ice": 414,
      "our": 415,
      "ide": 416,
      "art": 417,
      "Ġad": 418,
      "all": 419,
      "ĠN": 420,
      "Ġcomp": 421,
      "ast": 422,
      "ks": 423,
      "ie": 424,
      "rou": 425,
      "Ġdat": 426,
      "ach": 427,
      "Ġtheir": 428,
      "ome": 429,
      "res": 430,
      "Ġac": 431,
      "reat": 432,
      "ĠIt": 433,
      "ĠL": 434,
      "Ġme": 435,
      "Ġat": 436,
      "ĠO": 437,
      "Ġint": 438,
      "ces": 439,
      "Ġ\"": 440,
      "'s": 441,
      "Ġhave": 442,
      "Ġcl": 443,
      "Ġmore": 444,
      "ther": 445,
      "ang": 446,
      "ĠWhat": 447,
      "vel": 448,
      "ition": 449,
      "ard": 450,
      "Ġcont": 451,
      "Ġall": 452,
      "orm": 453,
      "gh": 454,
      "âĢ": 455,
      "ark": 456,
      "ations": 457,
      "ind": 458,
      "Ġyour": 459,
      "Ġdata": 460,
      "Ġ2": 461,
      "so": 462,
      "Ġhas": 463,
      "ru": 464,
      "Ġfe": 465,
      "fer": 466,
      "ime": 467,
      "ning": 468,
      "Ġsuch": 469,
      "ĠTh": 470,
      "Ġabout": 471,
      "ep": 472,
      "oo": 473,
      "ite": 474,
      "Ġapp": 475,
      "ous": 476,
      "ame": 477,
      "Ġj": 478,
      "Ġdo": 479,
      "ance": 480,
      "Ġhel": 481,
      "ip": 482,
      "Ġalso": 483,
      "est": 484,
      "Ġres": 485,
      "ustom": 486,
      "Ġqu": 487,
      "Ġ(": 488,
      "Ġhelp": 489,
      "Ġused": 490,
      "Ġpo": 491,
      "ult": 492,
      "Ġwhe": 493,
      "Ġar": 494,
      "Ġ|": 495,
      "Ġshould": 496,
      "one": 497,
      "Ġgo": 498,
      "ĠĠĠ": 499,
      "Ġup": 500,
      "Ġcustom": 501,
      "form": 502,
      "ans": 503,
      "ase": 504,
      "ue": 505,
      "Ġtrad": 506,
      "ount": 507,
      "Ġpe": 508,
      "ated": 509,
      "Ġdis": 510,
      "ap": 511,
      "Ġout": 512,
      "Ġfo": 513,
      "ical": 514,
      "ke": 515,
      "ace": 516,
      "ree": 517,
      "ble": 518,
      "Ġman": 519,
      "av": 520,
      "ĠIn": 521,
      "reate": 522,
      "ich": 523,
      "ener": 524,
      "ĠU": 525,
      "yst": 526,
      "ong": 527,
      "Ġun": 528,
      "ign": 529,
      "Ġco": 530,
      "ack": 531,
      "Ġuse": 532,
      "Ġso": 533,
      "Ġother": 534,
      "Ġnew": 535,
      "Ġtime": 536,
      "Ġinter": 537,
      "ry": 538,
      "ile": 539,
      "ell": 540,
      "Ġbet": 541,
      "der": 542,
      "duct": 543,
      "les": 544,
      "Ġprov": 545,
      "red": 546,
      "Ġem": 547,
      "ient": 548,
      "Ġdif": 549,
      "Ġeff": 550,
      "Ġpr": 551,
      "lud": 552,
      "king": 553,
      "Ġsc": 554,
      "Ġli": 555,
      "ec": 556,
      "ĠThis": 557,
      "Ġser": 558,
      "Ġdes": 559,
      "ob": 560,
      "rib": 561,
      "ĠJ": 562,
      "chn": 563,
      "Ġthey": 564,
      "ures": 565,
      "Ġwhich": 566,
      "Ġinclud": 567,
      "wo": 568,
      "Ġlear": 569,
      "lic": 570,
      "olog": 571,
      "alth": 572,
      "Ġnot": 573,
      "ear": 574,
      "ne": 575,
      "we": 576,
      "ful": 577,
      "Ġmake": 578,
      "ystem": 579,
      "Ġro": 580,
      "gy": 581,
      "Ġev": 582,
      "oy": 583,
      "als": 584,
      "ange": 585,
      "Ġway": 586,
      "ber": 587,
      "Ġimport": 588,
      "ory": 589,
      "Ġrec": 590,
      "ities": 591,
      "Ġ=": 592,
      "Ġover": 593,
      "Ġcomm": 594,
      "Ġact": 595,
      "Ġper": 596,
      "ific": 597,
      "ople": 598,
      "Ġdec": 599,
      "Ġwill": 600,
      "aking": 601,
      "Ġone": 602,
      "----": 603,
      "sion": 604,
      "ose": 605,
      "yp": 606,
      "ef": 607,
      "ary": 608,
      "ility": 609,
      "Ġ-": 610,
      "arket": 611,
      "ail": 612,
      "Ġ3": 613,
      "Ġtechn": 614,
      "now": 615,
      "ower": 616,
      "lect": 617,
      "ds": 618,
      "Ġits": 619,
      "Ġind": 620,
      "get": 621,
      "Ġtwo": 622,
      "Ġstr": 623,
      "ple": 624,
      "plain": 625,
      "ms": 626,
      "ments": 627,
      "ors": 628,
      "int": 629,
      "Ġdiffer": 630,
      "00": 631,
      "Ġcustomer": 632,
      "ater": 633,
      "Ġsystem": 634,
      "Ġproduct": 635,
      "ĠSt": 636,
      "ress": 637,
      "Ġhealth": 638,
      "Ġpeople": 639,
      "Ġredu": 640,
      "ased": 641,
      "Ġprocess": 642,
      "ia": 643,
      "enerate": 644,
      "Ġthis": 645,
      "Ġwork": 646,
      "ject": 647,
      "ĠDes": 648,
      "ience": 649,
      "dition": 650,
      "velop": 651,
      "Ġph": 652,
      "Ġrel": 653,
      "ential": 654,
      "Ġincre": 655,
      "Ġthem": 656,
      "ĠAd": 657,
      "ĠHe": 658,
      "Ġmarket": 659,
      "ĠHow": 660,
      "erson": 661,
      "ĠEx": 662,
      "Ġwhen": 663,
      "Ġlike": 664,
      "Ġwould": 665,
      "Ġcould": 666,
      "Ġhad": 667,
      "ire": 668,
      "Ġinto": 669,
      "ating": 670,
      "Ġnum": 671,
      "ates": 672,
      "ergy": 673,
      "ize": 674,
      "Ġcreat": 675,
      "Ġserv": 676,
      "Ġneed": 677,
      "ents": 678,
      "Ġtr": 679,
      "Ġacc": 680,
      "Ġbut": 681,
      "rough": 682,
      "crib": 683,
      "Ġam": 684,
      "very": 685,
      "ruct": 686,
      "Ġimportant": 687,
      "Ġenergy": 688,
      "ting": 689,
      "Ġ5": 690,
      "wor": 691,
      "anc": 692,
      "Ġhis": 693,
      "ick": 694,
      "ution": 695,
      "ound": 696,
      "Ġworld": 697,
      "ices": 698,
      "Ġbl": 699,
      "ook": 700,
      "Ġcol": 701,
      "row": 702,
      "Ġexper": 703,
      "ari": 704,
      "Ġpre": 705,
      "ass": 706,
      "ife": 707,
      "Ġtyp": 708,
      "Ġsm": 709,
      "ving": 710,
      "Ġhow": 711,
      "Ġlist": 712,
      "its": 713,
      "ology": 714,
      "xt": 715,
      "ph": 716,
      "ween": 717,
      "Ġher": 718,
      "Ġexp": 719,
      "nder": 720,
      "ild": 721,
      "Ġbetween": 722,
      "iness": 723,
      "ual": 724,
      "ise": 725,
      "Ġsk": 726,
      "Ġday": 727,
      "ft": 728,
      "Ġset": 729,
      "Ġlearning": 730,
      "ĠAI": 731,
      "Ġwho": 732,
      "ics": 733,
      "Ġsent": 734,
      "round": 735,
      "ish": 736,
      "Ġusing": 737,
      "con": 738,
      "Ġknow": 739,
      "Ġany": 740,
      "Ġfl": 741,
      "au": 742,
      "Ġsol": 743,
      "ĠGenerate": 744,
      "ural": 745,
      "ram": 746,
      "cribe": 747,
      "Ġthan": 748,
      "Ġcar": 749,
      "urn": 750,
      "Ġour": 751,
      "oth": 752,
      "The": 753,
      "ract": 754,
      "Ġbu": 755,
      "Ġmod": 756,
      "ular": 757,
      "line": 758,
      "Ġart": 759,
      "ĠCreate": 760,
      "Ġpart": 761,
      "Ġdevelop": 762,
      "Ġuser": 763,
      "Ġexam": 764,
      "gan": 765,
      "Ġinclude": 766,
      "Ġimpro": 767,
      "ings": 768,
      "ten": 769,
      "Ġwhile": 770,
      "Ġmost": 771,
      "owing": 772,
      "Ġunder": 773,
      "Ġval": 774,
      "cy": 775,
      "Ġbus": 776,
      "Ġperson": 777,
      "Ġthrough": 778,
      "angu": 779,
      "Ġbec": 780,
      "Ġsome": 781,
      "ub": 782,
      "Ġmed": 783,
      "Ġadv": 784,
      "vol": 785,
      "iron": 786,
      "sic": 787,
      "Ġfin": 788,
      "gor": 789,
      "ative": 790,
      "Ġke": 791,
      "ren": 792,
      "Ġcomput": 793,
      "Ġstud": 794,
      "Ġprog": 795,
      "Ġtas": 796,
      "mer": 797,
      "ict": 798,
      "Ġweb": 799,
      "Ġreduce": 800,
      "Ġbr": 801,
      "aly": 802,
      "Ġdet": 803,
      "ves": 804,
      "Ġpot": 805,
      "ĠAn": 806,
      "Ġra": 807,
      "uc": 808,
      "Ġmodel": 809,
      "Ġlar": 810,
      "viron": 811,
      "âĢĻ": 812,
      "Ġeffect": 813,
      "ious": 814,
      "Ġpur": 815,
      "ows": 816,
      "ax": 817,
      "Ġlangu": 818,
      "Ġbeen": 819,
      "riend": 820,
      "Ġlife": 821,
      "way": 822,
      "ĠV": 823,
      "pport": 824,
      "Ġbusiness": 825,
      "Ġpat": 826,
      "Ġif": 827,
      "Ġfoll": 828,
      "ved": 829,
      "Ġenviron": 830,
      "Ġinform": 831,
      "Ġ4": 832,
      "Ġtrans": 833,
      "ware": 834,
      "ditionally": 835,
      "Ġdi": 836,
      "Ġreg": 837,
      "tain": 838,
      "vers": 839,
      "Ġtake": 840,
      "Ġhum": 841,
      "ify": 842,
      "ĠDescribe": 843,
      "ĠAdditionally": 844,
      "Ġaut": 845,
      "eth": 846,
      "Ġthree": 847,
      "ts": 848,
      "Ġris": 849,
      "ources": 850,
      "Ġlead": 851,
      "Ġshe": 852,
      "ages": 853,
      "Ġprovide": 854,
      "Ġdifferent": 855,
      "ature": 856,
      "hes": 857,
      "Ġprovid": 858,
      "Ġeach": 859,
      "ĠExplain": 860,
      "tern": 861,
      "Ġtrading": 862,
      "ere": 863,
      "Ġsa": 864,
      "stand": 865,
      "ens": 866,
      "imate": 867,
      "gorith": 868,
      "Ġsoc": 869,
      "Ġlo": 870,
      "ences": 871,
      "Ġenvironment": 872,
      "Ġgl": 873,
      "Ġpower": 874,
      "ĠY": 875,
      "Ġret": 876,
      "gest": 877,
      "Ġresp": 878,
      "ety": 879,
      "rite": 880,
      "Ġtechnology": 881,
      "arm": 882,
      "Ġplan": 883,
      "up": 884,
      "Ġmy": 885,
      "Ġcreate": 886,
      "rit": 887,
      "Ġvari": 888,
      "ited": 889,
      "arch": 890,
      "ĠCom": 891,
      "Ġwhat": 892,
      "Ġdisc": 893,
      "Ġno": 894,
      "ock": 895,
      "ĠCh": 896,
      "ck": 897,
      "ons": 898,
      "Ġob": 899,
      "Ġmain": 900,
      "ized": 901,
      "Ġspec": 902,
      "ĠâĢ": 903,
      "any": 904,
      "led": 905,
      "ĠPro": 906,
      "ives": 907,
      "Ġcur": 908,
      "Ġlanguage": 909,
      "Ġwell": 910,
      "ness": 911,
      "ough": 912,
      "Ġthere": 913,
      "Ġsec": 914,
      "erm": 915,
      "Ġrep": 916,
      "Ġcomple": 917,
      "fore": 918,
      "Ġalgorith": 919,
      "Ġag": 920,
      "Ġfind": 921,
      "Ġpotential": 922,
      "gin": 923,
      "wn": 924,
      "struct": 925,
      "irst": 926,
      "Ġrem": 927,
      "Ġben": 928,
      "Ġcommun": 929,
      "Ġprot": 930,
      "Ġwater": 931,
      "Ġchar": 932,
      "ĠĠĠĠĠĠĠ": 933,
      "ily": 934,
      "Ġexample": 935,
      "Ġunderstand": 936,
      "Ġopt": 937,
      "Ġca": 938,
      "Ġfu": 939,
      "Ġmany": 940,
      "Ġanaly": 941,
      "Ġsentence": 942,
      "Ġgreat": 943,
      "vie": 944,
      "Ġactiv": 945,
      "own": 946,
      "Ġmu": 947,
      "Ġmin": 948,
      "Ġorder": 949,
      "hip": 950,
      "Ġcost": 951,
      "Ġaccess": 952,
      "ric": 953,
      "Ġeng": 954,
      "old": 955,
      "ĠK": 956,
      "ivid": 957,
      "ues": 958,
      "achine": 959,
      "Ġinformation": 960,
      "Ġche": 961,
      "ven": 962,
      "Ġpos": 963,
      "ĠName": 964,
      "Ġnumber": 965,
      "uring": 966,
      "Ġlong": 967,
      "ade": 968,
      "Ġsur": 969,
      "Ġyear": 970,
      "ident": 971,
      "ĠUn": 972,
      "ality": 973,
      "Ġstore": 974,
      "Ġcount": 975,
      "Ġoff": 976,
      "ication": 977,
      "ines": 978,
      "Ġplay": 979,
      "Ġbenef": 980,
      "Ġvis": 981,
      "Ġfood": 982,
      "Ġtasks": 983,
      "Ġfriend": 984,
      "rop": 985,
      "Ġhigh": 986,
      "ital": 987,
      "Ġrequ": 988,
      "pose": 989,
      "ĠWrite": 990,
      "Ġsuc": 991,
      "ward": 992,
      "ases": 993,
      "ĠCon": 994,
      "assi": 995,
      "Ġexperience": 996,
      "Ġlight": 997,
      "hed": 998,
      "Ġ<": 999,
      "li": 1000,
      "Ġ10": 1001,
      "Ġorgan": 1002,
      "Ġmay": 1003,
      "Ġequ": 1004,
      "Ġpop": 1005,
      "itive": 1006,
      "Ġdecis": 1007,
      "Ġtre": 1008,
      "Ġeffic": 1009,
      "atures": 1010,
      "conom": 1011,
      "Ġdesign": 1012,
      "Ġoften": 1013,
      "Ġbetter": 1014,
      "Ġed": 1015,
      "read": 1016,
      "ord": 1017,
      "Ġexpl": 1018,
      "ĠShe": 1019,
      "Ġve": 1020,
      "Ġwhere": 1021,
      "te": 1022,
      "Ġdoes": 1023,
      "ellig": 1024,
      "ause": 1025,
      "Ġprice": 1026,
      "ond": 1027,
      "Ġresult": 1028,
      "ib": 1029,
      "__": 1030,
      "ood": 1031,
      "ĠRe": 1032,
      "Ġfam": 1033,
      "atural": 1034,
      "Ġatt": 1035,
      "Ġform": 1036,
      "Ġsmall": 1037,
      "asi": 1038,
      "Ġproble": 1039,
      "etwor": 1040,
      "Ġget": 1041,
      "Ġsun": 1042,
      "ink": 1043,
      "Ġlarge": 1044,
      "vest": 1045,
      "Ġimprove": 1046,
      "iqu": 1047,
      "Ġback": 1048,
      "Ġwere": 1049,
      "ables": 1050,
      "nect": 1051,
      "Ġaround": 1052,
      "Ġeconom": 1053,
      "Ġsoft": 1054,
      "Ġimpact": 1055,
      "Ġgood": 1056,
      "Ġla": 1057,
      "ries": 1058,
      "Ġevery": 1059,
      "resent": 1060,
      "Ġboth": 1061,
      "ically": 1062,
      "oh": 1063,
      "Ġchange": 1064,
      "Ġprogram": 1065,
      "ars": 1066,
      "Ġadd": 1067,
      "Ġstory": 1068,
      "Ġservice": 1069,
      "ational": 1070,
      "Ġop": 1071,
      "Ġfive": 1072,
      "Ġsuccess": 1073,
      "Ġinvol": 1074,
      "Ġthen": 1075,
      "ancial": 1076,
      "**": 1077,
      "ocus": 1078,
      "eng": 1079,
      "Ġwebs": 1080,
      "Ġreturn": 1081,
      "com": 1082,
      "sid": 1083,
      "Ġsim": 1084,
      "hen": 1085,
      "Ġquick": 1086,
      "Ġonline": 1087,
      "Ġent": 1088,
      "Ġspe": 1089,
      "Ġmaking": 1090,
      "Ġcle": 1091,
      "Ġele": 1092,
      "Ġfeel": 1093,
      "ĠWe": 1094,
      "Ġconsi": 1095,
      "obal": 1096,
      "Ġfirst": 1097,
      "Ġloc": 1098,
      "Ġsocial": 1099,
      "ream": 1100,
      "Ġtop": 1101,
      "ption": 1102,
      "ploy": 1103,
      "ificial": 1104,
      "Ġident": 1105,
      "Ġass": 1106,
      "Ġapplic": 1107,
      "ĠThey": 1108,
      "ĠOn": 1109,
      "elligence": 1110,
      "akes": 1111,
      "ug": 1112,
      "Ġcharact": 1113,
      "Ġbefore": 1114,
      "ather": 1115,
      "Ġbeing": 1116,
      "Ġpol": 1117,
      "ants": 1118,
      "sel": 1119,
      "Ġfinancial": 1120,
      "ction": 1121,
      "Ġide": 1122,
      "Ġair": 1123,
      "Ġbest": 1124,
      "Ġable": 1125,
      "Ġlevel": 1126,
      "ling": 1127,
      "Ġchang": 1128,
      "Ġtem": 1129,
      "'t": 1130,
      "Ġdef": 1131,
      "ization": 1132,
      "Ġ20": 1133,
      "Ġ#": 1134,
      "Ġcustomers": 1135,
      "Ġsign": 1136,
      "Ġnetwor": 1137,
      "Ġinf": 1138,
      "vent": 1139,
      "Ġfun": 1140,
      "ills": 1141,
      "Ġgrow": 1142,
      "Ġcomputer": 1143,
      "Ġtraders": 1144,
      "Ġperform": 1145,
      "Ġfocus": 1146,
      "Ġstart": 1147,
      "Ġmon": 1148,
      "day": 1149,
      "Ġprof": 1150,
      "here": 1151,
      "ced": 1152,
      "aut": 1153,
      "Ġfollowing": 1154,
      "Ġhuman": 1155,
      "fter": 1156,
      "Ġcor": 1157,
      "ets": 1158,
      "ability": 1159,
      "ze": 1160,
      "Ġfut": 1161,
      "Ġwords": 1162,
      "Ġsum": 1163,
      "Ġjob": 1164,
      "Ġown": 1165,
      "Ġ[": 1166,
      "ode": 1167,
      "Ġ'": 1168,
      "Ġnatural": 1169,
      "Ġbre": 1170,
      "asing": 1171,
      "ss": 1172,
      "\".": 1173,
      "Ġhand": 1174,
      "Ġens": 1175,
      "ohn": 1176,
      "Ġsal": 1177,
      "Ġstrate": 1178,
      "Ġmachine": 1179,
      "ost": 1180,
      "Ġelect": 1181,
      "Ġconnect": 1182,
      "Ġdist": 1183,
      "Ġcap": 1184,
      "Ġgra": 1185,
      "Ġquest": 1186,
      "ually": 1187,
      "ĠEn": 1188,
      "Ġ8": 1189,
      "ysic": 1190,
      "ex": 1191,
      "cing": 1192,
      "Ġmade": 1193,
      "ined": 1194,
      "Ġcompany": 1195,
      "Ġhome": 1196,
      "lu": 1197,
      "Ġtext": 1198,
      "Ġitem": 1199,
      "Ġright": 1200,
      "Ġanim": 1201,
      "Ġlearn": 1202,
      "ense": 1203,
      "Ġinvest": 1204,
      "Ġ+": 1205,
      "Ġsub": 1206,
      "Ġrisk": 1207,
      "po": 1208,
      "cept": 1209,
      "ublic": 1210,
      "Ġnight": 1211,
      "oura": 1212,
      "Ġdown": 1213,
      "Ġsoftware": 1214,
      "Ġservices": 1215,
      "Ġwebsite": 1216,
      "Ġpred": 1217,
      "Ġend": 1218,
      "Ġeven": 1219,
      "Ġexplain": 1220,
      "bers": 1221,
      "Ġext": 1222,
      "Ġincrease": 1223,
      "Ġfound": 1224,
      "Ġbegin": 1225,
      "Ġshare": 1226,
      "Ġ6": 1227,
      "ertain": 1228,
      "ĠNe": 1229,
      "Ġfore": 1230,
      "Ġcons": 1231,
      "Ġtype": 1232,
      "Ġteam": 1233,
      "ash": 1234,
      "ency": 1235,
      "Ġdev": 1236,
      "ining": 1237,
      "Ġmat": 1238,
      "ty": 1239,
      "ouse": 1240,
      "Ġindivid": 1241,
      "Ġglobal": 1242,
      "ĠDe": 1243,
      "Ġshort": 1244,
      "Ġmeas": 1245,
      "Ġvalue": 1246,
      "Ġquickly": 1247,
      "iving": 1248,
      "bot": 1249,
      "rent": 1250,
      "Ġeduc": 1251,
      "reen": 1252,
      "ody": 1253,
      "Ġphysic": 1254,
      "Ġautom": 1255,
      "Ġfeatures": 1256,
      "Ġ0": 1257,
      "Ġcontent": 1258,
      "Ġsl": 1259,
      "over": 1260,
      "ats": 1261,
      "Ġav": 1262,
      "Ġcr": 1263,
      "ism": 1264,
      "ield": 1265,
      "iven": 1266,
      "ĠFin": 1267,
      "Ġstep": 1268,
      "Ġprotect": 1269,
      "Ġess": 1270,
      "Ġenc": 1271,
      "Ġpoint": 1272,
      "ressi": 1273,
      "Ġalgorithm": 1274,
      "Ġdep": 1275,
      "icle": 1276,
      "Ġbel": 1277,
      "Ġstay": 1278,
      "Ġproject": 1279,
      "air": 1280,
      "Ġread": 1281,
      "Ġsupport": 1282,
      "Ġfact": 1283,
      "ogn": 1284,
      "ission": 1285,
      "Ġobject": 1286,
      "Ġresources": 1287,
      "Ġpattern": 1288,
      "ger": 1289,
      "Ġrest": 1290,
      "Ġtoget": 1291,
      "Ġtogether": 1292,
      "ĠAr": 1293,
      "Ġactivities": 1294,
      "ron": 1295,
      "ĠCan": 1296,
      "Ġ19": 1297,
      "ner": 1298,
      "Ġcal": 1299,
      "Ġclimate": 1300,
      "--------": 1301,
      "Ġopen": 1302,
      "Ġunt": 1303,
      "aj": 1304,
      "Ġcare": 1305,
      "cul": 1306,
      "ws": 1307,
      "Ġpurpose": 1308,
      "Ġ$": 1309,
      "port": 1310,
      "Ġamount": 1311,
      "Ġsure": 1312,
      "ĠJohn": 1313,
      "Ġbenefits": 1314,
      "Ġmust": 1315,
      "Ġtemper": 1316,
      "Ġhig": 1317,
      "Ġtest": 1318,
      "Ġfamily": 1319,
      "verage": 1320,
      "Ġkey": 1321,
      "ix": 1322,
      "ross": 1323,
      "gg": 1324,
      "cc": 1325,
      "Ġpossi": 1326,
      "Ġusers": 1327,
      "ways": 1328,
      "Ġinterest": 1329,
      "Ġsystems": 1330,
      "Ġefficient": 1331,
      "Ġiss": 1332,
      "Ġgener": 1333,
      "urther": 1334,
      "Ġfuture": 1335,
      "Ġways": 1336,
      "Ġprom": 1337,
      "Ġstate": 1338,
      "Ġbuild": 1339,
      "Ġyears": 1340,
      "Ġmean": 1341,
      "Ġstruct": 1342,
      "io": 1343,
      "Ġoffer": 1344,
      "Ġpublic": 1345,
      "Ġmet": 1346,
      "Ġmem": 1347,
      "sp": 1348,
      "Ġwarm": 1349,
      "ming": 1350,
      "urity": 1351,
      "aging": 1352,
      "ote": 1353,
      "Ġkeep": 1354,
      "Ġfriends": 1355,
      "Ġconf": 1356,
      "Ġbeaut": 1357,
      "ĠAl": 1358,
      "Ġcurrent": 1359,
      "Ġintelligence": 1360,
      "Ġsky": 1361,
      "Ġuntil": 1362,
      "Ġi": 1363,
      "Ġindust": 1364,
      "ĠOne": 1365,
      "Ġmanage": 1366,
      "Ġskills": 1367,
      "Ġsug": 1368,
      "Ġref": 1369,
      "ols": 1370,
      "Ġdevelopment": 1371,
      "tle": 1372,
      "Ġwal": 1373,
      "Ġcaus": 1374,
      "19": 1375,
      "sive": 1376,
      "ĠSp": 1377,
      "self": 1378,
      "Ġcreating": 1379,
      "ulation": 1380,
      "Ġidentify": 1381,
      "Ġmedia": 1382,
      "Ġeffective": 1383,
      "Ġcommon": 1384,
      "Ġsom": 1385,
      "Ġbeh": 1386,
      "new": 1387,
      "ray": 1388,
      "ied": 1389,
      "ĠInd": 1390,
      "Ġensure": 1391,
      "Ġproviding": 1392,
      "Ġcup": 1393,
      "ĠUS": 1394,
      "ending": 1395,
      "ps": 1396,
      "izing": 1397,
      "Ġpersonal": 1398,
      "Ġrespon": 1399,
      "ave": 1400,
      "oney": 1401,
      "erc": 1402,
      "Ġcent": 1403,
      "Ġdig": 1404,
      "):": 1405,
      "Ġintern": 1406,
      "Ġmult": 1407,
      "Ġinst": 1408,
      "ery": 1409,
      "Ġdri": 1410,
      "Ġbreak": 1411,
      "ym": 1412,
      "Ġinput": 1413,
      "Ġsources": 1414,
      "Ġpri": 1415,
      "Ġmarkets": 1416,
      "Ġhelps": 1417,
      "pportun": 1418,
      "Ġconc": 1419,
      "ethod": 1420,
      "Ġbusinesses": 1421,
      "fic": 1422,
      "ooking": 1423,
      "Ġdem": 1424,
      "joy": 1425,
      "ian": 1426,
      "Ġstrong": 1427,
      "Ġhard": 1428,
      "ĠAs": 1429,
      "Ġproducts": 1430,
      "Ġcontain": 1431,
      "pare": 1432,
      "ee": 1433,
      "Ġreal": 1434,
      "Ġdra": 1435,
      "yc": 1436,
      "Ġrele": 1437,
      "Ġproblem": 1438,
      "ĠUnited": 1439,
      "ted": 1440,
      "Ġeasi": 1441,
      "Ġbecome": 1442,
      "10": 1443,
      "care": 1444,
      "Ġsame": 1445,
      "Ġcontro": 1446,
      "Ġrange": 1447,
      "ands": 1448,
      "ĠĠĠĠĠĠĠĠ": 1449,
      "Ġplace": 1450,
      "ficult": 1451,
      "oun": 1452,
      "Ġjust": 1453,
      "Ġbi": 1454,
      "ĠTo": 1455,
      "Ġhapp": 1456,
      "ĠList": 1457,
      "Ġtri": 1458,
      "Ġbased": 1459,
      "Ġmuch": 1460,
      "ĠFinally": 1461,
      "Ġ7": 1462,
      "Ġwrit": 1463,
      "),": 1464,
      "Ġbo": 1465,
      "Ġonly": 1466,
      "Ġopportun": 1467,
      "ĠPl": 1468,
      "Ġitems": 1469,
      "Ġpredict": 1470,
      "Ġphysical": 1471,
      "'m": 1472,
      "Ġnever": 1473,
      "Ġemploy": 1474,
      "Ġmove": 1475,
      "osp": 1476,
      "Ġunderstanding": 1477,
      "Ġtim": 1478,
      "Ġdue": 1479,
      "pping": 1480,
      "ired": 1481,
      "Ġpract": 1482,
      "amp": 1483,
      "ins": 1484,
      "vern": 1485,
      "Ġwithout": 1486,
      "Ġwhy": 1487,
      "ffect": 1488,
      "Ġinteract": 1489,
      "Ġstudents": 1490,
      "Ġsee": 1491,
      "arth": 1492,
      "az": 1493,
      "Ġmethod": 1494,
      "Ġmaj": 1495,
      "Ġsearch": 1496,
      "ination": 1497,
      "Ġdifficult": 1498,
      "Ġvol": 1499,
      "Ġcomplex": 1500,
      "Ġrese": 1501,
      "Ġartificial": 1502,
      "Ġdeterm": 1503,
      "ients": 1504,
      "ci": 1505,
      "utes": 1506,
      "sis": 1507,
      "Ġwind": 1508,
      "Ġchall": 1509,
      "Ġcharacter": 1510,
      "meric": 1511,
      "ering": 1512,
      "Ġhim": 1513,
      "ring": 1514,
      "Ġsaf": 1515,
      "cri": 1516,
      "ĠFor": 1517,
      "ĠTell": 1518,
      "Ġless": 1519,
      "Ġcommunication": 1520,
      "Ġfew": 1521,
      "Ġmarketing": 1522,
      "Ġgovern": 1523,
      "Ġcontin": 1524,
      "Ġrecogn": 1525,
      ".\"": 1526,
      "ove": 1527,
      "cho": 1528,
      "Ġclass": 1529,
      "oud": 1530,
      "Ġcomb": 1531,
      "ath": 1532,
      "Ġallows": 1533,
      "Ġthese": 1534,
      "Ġpossible": 1535,
      "ĠIm": 1536,
      "Ġrelations": 1537,
      "Ġincreasing": 1538,
      "hor": 1539,
      "Ġgame": 1540,
      "Ġrun": 1541,
      "aterial": 1542,
      "ank": 1543,
      "Ġeconomic": 1544,
      "Ġuses": 1545,
      "Ġchild": 1546,
      "Ġpoll": 1547,
      "Ġmot": 1548,
      "Ġcity": 1549,
      "ething": 1550,
      "Ġbuy": 1551,
      ").": 1552,
      "Ġdeep": 1553,
      "Ġstructure": 1554,
      "Ġvir": 1555,
      "Ġhealthy": 1556,
      "Ġincreased": 1557,
      "ners": 1558,
      "ĠCl": 1559,
      "side": 1560,
      "ental": 1561,
      "raph": 1562,
      "Ġgiven": 1563,
      "ples": 1564,
      "els": 1565,
      "Ġvariety": 1566,
      "Ġalways": 1567,
      "ique": 1568,
      "to": 1569,
      "Ġneeds": 1570,
      "Ġaccount": 1571,
      "Ġlove": 1572,
      "ĠApp": 1573,
      "Ġlevels": 1574,
      "Ġmaterial": 1575,
      "ĠAmeric": 1576,
      "Ġtoo": 1577,
      "Ġpartic": 1578,
      "Ġgr": 1579,
      "Ġlet": 1580,
      "Ġperformance": 1581,
      "Ġsomething": 1582,
      "Ġpass": 1583,
      "Ġx": 1584,
      "verse": 1585,
      "ĠDef": 1586,
      "ledge": 1587,
      "Ġcult": 1588,
      "Ġdecisions": 1589,
      "Ġconsum": 1590,
      "Ġsecurity": 1591,
      "chie": 1592,
      "Ġcall": 1593,
      "elf": 1594,
      "âĢĿ": 1595,
      "Ġlim": 1596,
      "aste": 1597,
      "ull": 1598,
      "ances": 1599,
      "ĠTe": 1600,
      "Ġincluding": 1601,
      "Ġpositive": 1602,
      "ov": 1603,
      "ney": 1604,
      "ivity": 1605,
      "Ġoper": 1606,
      "Ġtrend": 1607,
      "Ġagain": 1608,
      "Ġsit": 1609,
      "utions": 1610,
      "Ġarea": 1611,
      "Ġpay": 1612,
      "Ġconsider": 1613,
      "Ġbecause": 1614,
      "Ġclassi": 1615,
      "Ġcode": 1616,
      "Ġword": 1617,
      "Ġspread": 1618,
      "Ġgu": 1619,
      "ĠâĢľ": 1620,
      "Ġlook": 1621,
      "Ġtypically": 1622,
      "Ġrelationship": 1623,
      "pr": 1624,
      "Ġbook": 1625,
      "aster": 1626,
      "Ġrate": 1627,
      "avi": 1628,
      "Ġrobot": 1629,
      "br": 1630,
      "Ġreach": 1631,
      "ooks": 1632,
      "volution": 1633,
      "Ġexplore": 1634,
      "me": 1635,
      "Ġapplications": 1636,
      "Ġmajor": 1637,
      "iting": 1638,
      "ĠWhy": 1639,
      "Ġresearch": 1640,
      "Ġdigital": 1641,
      "oss": 1642,
      "Ġcontrol": 1643,
      "ium": 1644,
      "oring": 1645,
      "atch": 1646,
      "Ġhist": 1647,
      "Ġnetwork": 1648,
      "ĠâĢĵ": 1649,
      "Ġjour": 1650,
      "Ġinvolves": 1651,
      "Ġelements": 1652,
      "Ġpopular": 1653,
      "Ġfac": 1654,
      "Ġquestions": 1655,
      "less": 1656,
      "Ġsw": 1657,
      "Ġmar": 1658,
      "Ġlay": 1659,
      "abor": 1660,
      "Ġcountries": 1661,
      "ression": 1662,
      "20": 1663,
      "Ġevent": 1664,
      "Ġgoals": 1665,
      "Ġeducation": 1666,
      "ale": 1667,
      "Ġfill": 1668,
      "Ġmag": 1669,
      "Ġgrou": 1670,
      "Ġoptim": 1671,
      "Ġchanges": 1672,
      "aper": 1673,
      "Ġcertain": 1674,
      "Ġhealthcare": 1675,
      "uation": 1676,
      "ute": 1677,
      "Ġalgorithms": 1678,
      "Ġaway": 1679,
      "ĠMake": 1680,
      "mar": 1681,
      "ĠStates": 1682,
      "ories": 1683,
      "Ġ9": 1684,
      "Ġafter": 1685,
      "aring": 1686,
      "ah": 1687,
      "bon": 1688,
      "Ġmodels": 1689,
      "Ġability": 1690,
      "Ġregular": 1691,
      "Ġenjoy": 1692,
      "ource": 1693,
      "view": 1694,
      "Ġduring": 1695,
      "Ġpatterns": 1696,
      "Ġlow": 1697,
      "Ġarticle": 1698,
      "Ġengine": 1699,
      "pect": 1700,
      "Ġappro": 1701,
      "ĠThere": 1702,
      "Ġessential": 1703,
      "Ġpain": 1704,
      "other": 1705,
      "light": 1706,
      "Ġallowing": 1707,
      "Ġtaking": 1708,
      "Ġprodu": 1709,
      "Ġaddition": 1710,
      "Ġquality": 1711,
      "Ġmeet": 1712,
      "ession": 1713,
      "Ġold": 1714,
      "Ġadvant": 1715,
      "ourage": 1716,
      "Ġmoney": 1717,
      "Ġanalysis": 1718,
      "mosp": 1719,
      "Ġachie": 1720,
      "Ġeffects": 1721,
      "Ġprovides": 1722,
      "ĠYou": 1723,
      "ible": 1724,
      "Ġallow": 1725,
      "Ġwant": 1726,
      "Ġheart": 1727,
      "Ġcreative": 1728,
      "Ġmeaning": 1729,
      "ĠId": 1730,
      "Ġcome": 1731,
      "Ġdecision": 1732,
      "Ġconcept": 1733,
      "Ġbody": 1734,
      "Ġname": 1735,
      "Ġpast": 1736,
      "Ġpresent": 1737,
      "Ġsteps": 1738,
      "back": 1739,
      "eg": 1740,
      "atform": 1741,
      "Ġknowledge": 1742,
      "Ġtransport": 1743,
      "Ġpowerful": 1744,
      "ral": 1745,
      "orts": 1746,
      "Ġgreen": 1747,
      "Ġnumbers": 1748,
      "ging": 1749,
      "Ġdire": 1750,
      "//": 1751,
      "Ġstrateg": 1752,
      "Ġmovie": 1753,
      "Ġgrowth": 1754,
      "Ġhigher": 1755,
      "vant": 1756,
      "cessary": 1757,
      "Ġbir": 1758,
      "Ġstock": 1759,
      "urate": 1760,
      "ret": 1761,
      "ĠWor": 1762,
      "Ġpurch": 1763,
      "Ġminutes": 1764,
      "Ġsetting": 1765,
      "Ġatmosp": 1766,
      "Ġbehavi": 1767,
      "Ġsing": 1768,
      "ĠWith": 1769,
      "000": 1770,
      "iment": 1771,
      "vert": 1772,
      "Ġfull": 1773,
      "Ġpost": 1774,
      "iple": 1775,
      "uals": 1776,
      "Ġfield": 1777,
      "ĠInt": 1778,
      "ĠSh": 1779,
      "ush": 1780,
      "Ġplatform": 1781,
      "Ġcollect": 1782,
      "Ġanimals": 1783,
      "ĠDefine": 1784,
      "Ġtar": 1785,
      "ĠEarth": 1786,
      "Ġexperi": 1787,
      "ĠNo": 1788,
      "itions": 1789,
      "ilities": 1790,
      "ĠOnce": 1791,
      "yle": 1792,
      "ata": 1793,
      "Ġexc": 1794,
      "fact": 1795,
      "Ġdifference": 1796,
      "Ġveget": 1797,
      "Ġfil": 1798,
      "Ġthough": 1799,
      "Ġaverage": 1800,
      "Ġlog": 1801,
      "Ġlast": 1802,
      "Ġtravel": 1803,
      "Ġthose": 1804,
      "Ġcho": 1805,
      "Ġear": 1806,
      "ides": 1807,
      "âĢ¢": 1808,
      "newable": 1809,
      "oes": 1810,
      "Ġpolic": 1811,
      "Ġbelie": 1812,
      "Ġfunction": 1813,
      "Ġpar": 1814,
      "Ġaction": 1815,
      "Ġaccurate": 1816,
      "face": 1817,
      "Ġdetect": 1818,
      "asy": 1819,
      "Ġsignific": 1820,
      "Ġbra": 1821,
      "redients": 1822,
      "ĠIdent": 1823,
      "ours": 1824,
      "Ġemail": 1825,
      "iety": 1826,
      "omm": 1827,
      "Ġshow": 1828,
      "Ġdark": 1829,
      "Ġstress": 1830,
      "Ġocc": 1831,
      "Ġbro": 1832,
      "Ġrequire": 1833,
      "\",": 1834,
      "Ġjourney": 1835,
      "ape": 1836,
      "issions": 1837,
      "Ġfour": 1838,
      "Ġfre": 1839,
      "Ġatmosphere": 1840,
      "Ġsound": 1841,
      "itional": 1842,
      "Ġprocessing": 1843,
      "Ġexpect": 1844,
      "Ġgain": 1845,
      "Ġprint": 1846,
      "sw": 1847,
      "Ġself": 1848,
      "ura": 1849,
      "pped": 1850,
      "Ġsecure": 1851,
      "mat": 1852,
      "Ġupon": 1853,
      "Ġavail": 1854,
      "Ġstand": 1855,
      "ĠIdentify": 1856,
      "Ġcosts": 1857,
      "Ġest": 1858,
      "Ġfeed": 1859,
      "Ġtask": 1860,
      "Ġsuccessful": 1861,
      "ĠSug": 1862,
      "anced": 1863,
      "wards": 1864,
      "Ġliving": 1865,
      "Ġgovernment": 1866,
      "lish": 1867,
      "Ġunique": 1868,
      "iod": 1869,
      "tt": 1870,
      "ĠQ": 1871,
      "Ġclear": 1872,
      "Ġbeginners": 1873,
      "Ġhead": 1874,
      "ĠNew": 1875,
      "Ġtarget": 1876,
      "based": 1877,
      "Ġaffect": 1878,
      "Ġline": 1879,
      "Ġlooking": 1880,
      "Ġter": 1881,
      "ĠIf": 1882,
      "Ġscient": 1883,
      "ĠDesign": 1884,
      "Ġtypes": 1885,
      "Ġel": 1886,
      "Ġrenewable": 1887,
      "Ġpollution": 1888,
      "ĠGive": 1889,
      "Ġnecessary": 1890,
      "aves": 1891,
      "Ġaud": 1892,
      "ently": 1893,
      "Ġindividual": 1894,
      "</": 1895,
      "Ġsomeone": 1896,
      "Ġscho": 1897,
      "Ġpie": 1898,
      "Ġspecies": 1899,
      "ane": 1900,
      "Ġphr": 1901,
      "stain": 1902,
      "Ġcamp": 1903,
      "Ġspace": 1904,
      "osed": 1905,
      "Ġer": 1906,
      "Ġhaving": 1907,
      "Ġimportance": 1908,
      "Ġcompan": 1909,
      "Ġrepresent": 1910,
      "lling": 1911,
      "Ġcarbon": 1912,
      "Ġtemperature": 1913,
      "ope": 1914,
      "Ġmedical": 1915,
      "reng": 1916,
      "Ġstill": 1917,
      "Ġindustry": 1918,
      "tal": 1919,
      "leep": 1920,
      "ames": 1921,
      "Ġsupp": 1922,
      "val": 1923,
      "vis": 1924,
      "Ġsustain": 1925,
      "Ġwee": 1926,
      "ĠSuggest": 1927,
      "ffic": 1928,
      "ĠArt": 1929,
      "Ġacross": 1930,
      "aur": 1931,
      "Ġlit": 1932,
      "ips": 1933,
      "Ġemot": 1934,
      "ĠProv": 1935,
      "Ġideas": 1936,
      "Ġstrategies": 1937,
      "Ġbal": 1938,
      "Ġcompare": 1939,
      "Ġmaintain": 1940,
      "``": 1941,
      "ince": 1942,
      "Ġexerc": 1943,
      "Ġcoll": 1944,
      "Ġgenerate": 1945,
      "ĠFind": 1946,
      "Ġclean": 1947,
      "St": 1948,
      "Ġsever": 1949,
      "Ġdid": 1950,
      "Ġactivity": 1951,
      "Ġsize": 1952,
      "Ġresults": 1953,
      "pro": 1954,
      "Ġtax": 1955,
      "ĠDevelop": 1956,
      "Ġfree": 1957,
      "place": 1958,
      "Ġoil": 1959,
      "Ġimproved": 1960,
      "Ġsignificant": 1961,
      "Ġmil": 1962,
      "uss": 1963,
      "Ġthink": 1964,
      "ires": 1965,
      "avor": 1966,
      "by": 1967,
      "Ġtru": 1968,
      "Ġtry": 1969,
      "ument": 1970,
      "Ġreducing": 1971,
      "Ġchalleng": 1972,
      "let": 1973,
      "Ġtraditional": 1974,
      "Ġrelated": 1975,
      "tual": 1976,
      "Ġstudy": 1977,
      "den": 1978,
      "Ġwide": 1979,
      "Ġleading": 1980,
      "Ġgive": 1981,
      "ert": 1982,
      "Ġcolor": 1983,
      "Ġver": 1984,
      "vey": 1985,
      "Ġvie": 1986,
      "Ġforest": 1987,
      "Ġfeeling": 1988,
      "Ġproper": 1989,
      "ĠPre": 1990,
      "Ġinternet": 1991,
      "Ġland": 1992,
      "Ġopportunities": 1993,
      "Ġmoder": 1994,
      "Ġtechnolog": 1995,
      "oid": 1996,
      "Ġsense": 1997,
      "Ġhouse": 1998,
      "Ġknown": 1999,
      "Ġban": 2000,
      "Ġemissions": 2001,
      "Ġadvent": 2002,
      "Ġleg": 2003,
      "Ġevents": 2004,
      "Ġlives": 2005,
      "iency": 2006,
      "Ġever": 2007,
      "aces": 2008,
      "Ġdise": 2009,
      "cean": 2010,
      "Ġcomplete": 2011,
      "Ġinflu": 2012,
      "ng": 2013,
      "Ġloss": 2014,
      "ĠFr": 2015,
      "Ġperiod": 2016,
      "Ġ{": 2017,
      "ional": 2018,
      "illion": 2019,
      "Ġmeans": 2020,
      "Ġcountry": 2021,
      "Ġblue": 2022,
      "atis": 2023,
      "Ġpoem": 2024,
      "Ġoptions": 2025,
      "Ġproblems": 2026,
      "Ġmeasures": 2027,
      "med": 2028,
      "Ġlate": 2029,
      "Ġworking": 2030,
      "Ġspecific": 2031,
      "ones": 2032,
      "sible": 2033,
      "Ġsolutions": 2034,
      "iss": 2035,
      "ason": 2036,
      "Ġvarious": 2037,
      "Ġpoints": 2038,
      "Ġagainst": 2039,
      "ĠProvide": 2040,
      "ĠWhen": 2041,
      "Ġlocal": 2042,
      "Ġtimes": 2043,
      "ists": 2044,
      "Ġsuggest": 2045,
      "inc": 2046,
      "Ġcorre": 2047,
      "Ġpaper": 2048,
      "Ġconsist": 2049,
      "Ġfeedback": 2050,
      "ked": 2051,
      "Ġmom": 2052,
      "Ġstreng": 2053,
      "Ġcompet": 2054,
      "Ġchildren": 2055,
      "Ġarray": 2056,
      "Ġpeace": 2057,
      "Ġmethods": 2058,
      "lement": 2059,
      "Ġtransportation": 2060,
      "Ġtotal": 2061,
      "acy": 2062,
      "ĠGP": 2063,
      "Ġdon": 2064,
      "ength": 2065,
      "Ġcat": 2066,
      "Ġareas": 2067,
      "Ġhumans": 2068,
      "Ġremain": 2069,
      "Th": 2070,
      "app": 2071,
      "Ġcard": 2072,
      "emic": 2073,
      "ommend": 2074,
      "Ġmental": 2075,
      "ĠThese": 2076,
      "Ġbright": 2077,
      "Ġpopulation": 2078,
      "Ġassi": 2079,
      "ĠRes": 2080,
      "iques": 2081,
      "ĠSc": 2082,
      "Ġneg": 2083,
      "astic": 2084,
      "Ġbehavior": 2085,
      "Ġey": 2086,
      "ĠBe": 2087,
      "Ġcause": 2088,
      "Ġmind": 2089,
      "Ġnut": 2090,
      "Ġmor": 2091,
      "Ġspecial": 2092,
      "Ġdog": 2093,
      "Ġweather": 2094,
      "fect": 2095,
      "Ġmax": 2096,
      "Ġcalcul": 2097,
      "ising": 2098,
      "Ġdetail": 2099,
      "Ġfund": 2100,
      "Ġspeed": 2101,
      "atic": 2102,
      "Ġnature": 2103,
      "Ġstudent": 2104,
      "Ġmanagement": 2105,
      "ese": 2106,
      "poon": 2107,
      "Ġturn": 2108,
      "Ġegg": 2109,
      "ĠInc": 2110,
      "Ġbring": 2111,
      "Ġelectric": 2112,
      "Ġeasy": 2113,
      "orn": 2114,
      "lex": 2115,
      "Ì¦": 2116,
      "Ġlive": 2117,
      "Ġtrack": 2118,
      "Ġseen": 2119,
      "versity": 2120,
      "Ġaddress": 2121,
      "Ġstatement": 2122,
      "ges": 2123,
      "Ġprogramming": 2124,
      "ĠApple": 2125,
      "oms": 2126,
      "Ì¦Ì¦": 2127,
      "Ġtools": 2128,
      "Ġmusic": 2129,
      "ead": 2130,
      "Ġtreat": 2131,
      "Ġmultiple": 2132,
      "istic": 2133,
      "Ġnow": 2134,
      "ĠBy": 2135,
      "Ġoutput": 2136,
      "Ġdays": 2137,
      "Ġvalues": 2138,
      "Ġgreater": 2139,
      "Ġstrategy": 2140,
      "co": 2141,
      "for": 2142,
      "Ġtrees": 2143,
      "Ġsym": 2144,
      "Ġusually": 2145,
      "Ġmaterials": 2146,
      "Ġheat": 2147,
      "Ġdream": 2148,
      "Ġstri": 2149,
      "Ġwithin": 2150,
      "weet": 2151,
      "ĠEng": 2152,
      "Ġmonth": 2153,
      "Ġbeauty": 2154,
      "ration": 2155,
      "Ġ15": 2156,
      "Ġinsi": 2157,
      "Ġhistory": 2158,
      "Ġothers": 2159,
      "Ġefficiency": 2160,
      "Ġcook": 2161,
      "Ġsleep": 2162,
      "Ġnear": 2163,
      "Ġclassif": 2164,
      "ograph": 2165,
      "ier": 2166,
      "yth": 2167,
      "ene": 2168,
      "Ġprocesses": 2169,
      "Ġsho": 2170,
      "Ġtechniques": 2171,
      "Ġissues": 2172,
      "Ġmodern": 2173,
      "ever": 2174,
      "Ġbutter": 2175,
      "Ġgroup": 2176,
      "Ġfurther": 2177,
      "Ġmess": 2178,
      "irc": 2179,
      "oci": 2180,
      "agn": 2181,
      "Ġjoy": 2182,
      "Ġyoung": 2183,
      "Ġtrade": 2184,
      "Ġcloud": 2185,
      "Ġphrase": 2186,
      "Ġside": 2187,
      "Ġlower": 2188,
      "ĠGo": 2189,
      "Ġpress": 2190,
      "resh": 2191,
      "Ġenvironmental": 2192,
      "Ġwriting": 2193,
      "ator": 2194,
      "Ġface": 2195,
      "icate": 2196,
      "Ġcompon": 2197,
      "Ġnews": 2198,
      "Ġindividuals": 2199,
      "Ġcaused": 2200,
      "Ġcompanies": 2201,
      "Ġing": 2202,
      "elt": 2203,
      "Ġkind": 2204,
      "ountain": 2205,
      "more": 2206,
      "Ġselect": 2207,
      "Ġneeded": 2208,
      "Ġtrends": 2209,
      "Ġavailable": 2210,
      "fort": 2211,
      "ox": 2212,
      "ĠAm": 2213,
      "Ġ12": 2214,
      "Ġfilled": 2215,
      "ees": 2216,
      "Ġscience": 2217,
      "ĠOr": 2218,
      "Ġwaste": 2219,
      "word": 2220,
      "ished": 2221,
      "ift": 2222,
      "Ġsea": 2223,
      "Ġcapital": 2224,
      "iful": 2225,
      "Ġdatab": 2226,
      "Ġschool": 2227,
      "aving": 2228,
      "Ġrecommend": 2229,
      "por": 2230,
      "Ġtal": 2231,
      "Ġdeli": 2232,
      "structions": 2233,
      "Ġtoday": 2234,
      "Ġthings": 2235,
      "Ġcolors": 2236,
      "Ġvirtual": 2237,
      "pper": 2238,
      "Ġdiscuss": 2239,
      "Ġcomputing": 2240,
      "ropri": 2241,
      "ĠGPT": 2242,
      "Ġphot": 2243,
      "Ġgoing": 2244,
      "ĠAmerican": 2245,
      "Ġsource": 2246,
      "ĠFurther": 2247,
      "unch": 2248,
      "Ġrain": 2249,
      "Ġpriv": 2250,
      "|--------": 2251,
      "ina": 2252,
      "ĠEm": 2253,
      "Ġworks": 2254,
      "Ġincludes": 2255,
      "Ġprofession": 2256,
      "cription": 2257,
      "Ġreli": 2258,
      "Ġinn": 2259,
      "rad": 2260,
      "Ġwarming": 2261,
      "Ġsingle": 2262,
      "Ġteas": 2263,
      "par": 2264,
      "Ġbat": 2265,
      "ropriate": 2266,
      "just": 2267,
      "Ġnext": 2268,
      "ĠAdd": 2269,
      "iet": 2270,
      "____": 2271,
      "Ġtable": 2272,
      "Ġansw": 2273,
      "ived": 2274,
      "ĠAfter": 2275,
      "Ġassoci": 2276,
      "Ġvery": 2277,
      "Ġpage": 2278,
      "Ġfar": 2279,
      "Ġdoc": 2280,
      "Ġstop": 2281,
      "Ġintro": 2282,
      "Ġarg": 2283,
      "Ġoccur": 2284,
      "orth": 2285,
      "Ġclose": 2286,
      "Ġsolution": 2287,
      "Ġeconomy": 2288,
      "ening": 2289,
      "Ġoverall": 2290,
      "use": 2291,
      "play": 2292,
      "ĠWorld": 2293,
      "uracy": 2294,
      "itle": 2295,
      "Ġwon": 2296,
      "Ġbud": 2297,
      "ĠSm": 2298,
      "Ġmob": 2299,
      "Ġ18": 2300,
      "Ġtables": 2301,
      "Ġfollow": 2302,
      "Ġnetworks": 2303,
      "Ġissue": 2304,
      "land": 2305,
      "oon": 2306,
      "Ġbooks": 2307,
      "Ġdeg": 2308,
      "Ġvide": 2309,
      "ĠMy": 2310,
      "Ġadvantages": 2311,
      "ned": 2312,
      "Ġrece": 2313,
      "Ġidea": 2314,
      "Ġrestaur": 2315,
      "Ġeasier": 2316,
      "ton": 2317,
      "Ġnon": 2318,
      "term": 2319,
      "be": 2320,
      "Ġmyst": 2321,
      "anger": 2322,
      "Ġposition": 2323,
      "Ġapplication": 2324,
      "Ġinsigh": 2325,
      "ww": 2326,
      "Ġcollabor": 2327,
      "Ġview": 2328,
      "serv": 2329,
      "Ġstars": 2330,
      "Ġfeature": 2331,
      "Ġsave": 2332,
      "Ġtree": 2333,
      "Ġda": 2334,
      "Ġhot": 2335,
      "Ġimpl": 2336,
      "Ġrecognition": 2337,
      "ĠLear": 2338,
      "Ġanother": 2339,
      "icles": 2340,
      "Ġcharacters": 2341,
      "Ġbeautiful": 2342,
      "idence": 2343,
      "Ġtechnologies": 2344,
      "Ġstrength": 2345,
      "Ġsatis": 2346,
      "Ġsecon": 2347,
      "ĠCal": 2348,
      "Ġdeb": 2349,
      "Ġexist": 2350,
      "ĠData": 2351,
      "Ġrole": 2352,
      "Ġcheck": 2353,
      "Ġaccuracy": 2354,
      "ĠTechn": 2355,
      "Ġprices": 2356,
      "Ġveh": 2357,
      "head": 2358,
      "Ġeveryone": 2359,
      "apt": 2360,
      "of": 2361,
      "Ġri": 2362,
      "ĠFurthermore": 2363,
      "aken": 2364,
      "ilar": 2365,
      "Ġoffers": 2366,
      "reme": 2367,
      "Ġperfect": 2368,
      "Ġplants": 2369,
      "Ġdirect": 2370,
      "ĠĠĠĠĠĠĠĠĠĠĠ": 2371,
      "Ġplanet": 2372,
      "Ġrelationships": 2373,
      "50": 2374,
      "Ġimplement": 2375,
      "Ġsimple": 2376,
      "aling": 2377,
      "Ġmeasure": 2378,
      "ully": 2379,
      "Ġcond": 2380,
      "ĠOut": 2381,
      "Ġjo": 2382,
      "aign": 2383,
      "ided": 2384,
      "Ġengage": 2385,
      "lt": 2386,
      "oming": 2387,
      "Ġingredients": 2388,
      "rams": 2389,
      "Ġdesigned": 2390,
      "ĠIndia": 2391,
      "Ġmotiv": 2392,
      "Ġassistant": 2393,
      "ask": 2394,
      "ĠAll": 2395,
      "ury": 2396,
      "oyal": 2397,
      "Ġbrow": 2398,
      "icial": 2399,
      "Ġlif": 2400,
      "Ġz": 2401,
      "Ġconvers": 2402,
      "Ġweek": 2403,
      "ĠĠčĊ": 2404,
      "yn": 2405,
      "Ġhours": 2406,
      "Ġred": 2407,
      "Ġdifferences": 2408,
      "Ġproduction": 2409,
      "Ġdiet": 2410,
      "Ġbudget": 2411,
      "Ġcirc": 2412,
      "Ġeasily": 2413,
      "bs": 2414,
      "Ġsqu": 2415,
      "ording": 2416,
      "Ġexce": 2417,
      "Ġcell": 2418,
      "itch": 2419,
      "rast": 2420,
      "ĠWar": 2421,
      "Ġflow": 2422,
      "Ġexperiences": 2423,
      "ots": 2424,
      "thing": 2425,
      "Ġprevent": 2426,
      "Ġpolit": 2427,
      "Ġsales": 2428,
      "Ġsituation": 2429,
      "sc": 2430,
      "Ġport": 2431,
      "orage": 2432,
      "Ġrespect": 2433,
      "Ġseveral": 2434,
      "Ġassociated": 2435,
      "arr": 2436,
      "Ġcampaign": 2437,
      "come": 2438,
      "gen": 2439,
      "Ġmakes": 2440,
      "Ġdone": 2441,
      "Ġhab": 2442,
      "Ġcontrib": 2443,
      "angle": 2444,
      "Ġtrue": 2445,
      "Ġdescribe": 2446,
      "Ġmobile": 2447,
      "dom": 2448,
      "ules": 2449,
      "Ġut": 2450,
      "Ġappropriate": 2451,
      "Ġfru": 2452,
      "acks": 2453,
      "Ġcapt": 2454,
      "Ġill": 2455,
      "Ġsummer": 2456,
      "Ġchallenges": 2457,
      "ged": 2458,
      "Ġanimal": 2459,
      "Ġfactors": 2460,
      "inking": 2461,
      "Ġwent": 2462,
      "Ġcomponents": 2463,
      "Ġcour": 2464,
      "Ġant": 2465,
      "Ġdecre": 2466,
      "ĠCompare": 2467,
      "Ġdevices": 2468,
      "Ġsafety": 2469,
      "Ġfaster": 2470,
      "ĠEu": 2471,
      "Ġprogress": 2472,
      "Ġpath": 2473,
      "Ġrisks": 2474,
      "fl": 2475,
      "Ġpand": 2476,
      "ern": 2477,
      "ĠMachine": 2478,
      "Ġteaspoon": 2479,
      "do": 2480,
      "Ġbig": 2481,
      "Ġyourself": 2482,
      "imately": 2483,
      "Ġsince": 2484,
      "ĠSe": 2485,
      "Ġblock": 2486,
      "Ġpractice": 2487,
      "Ġvegetables": 2488,
      "It": 2489,
      "Ġocean": 2490,
      "ĠRed": 2491,
      "Ġsolve": 2492,
      "ĠConstruct": 2493,
      "Ġmonit": 2494,
      "Ġloyal": 2495,
      "acher": 2496,
      "Ġsociety": 2497,
      "Ġinnov": 2498,
      "ork": 2499,
      "ĠSum": 2500,
      "Ġtraining": 2501,
      "ĠUse": 2502,
      "ĠPh": 2503,
      "Ġsolar": 2504,
      "Ġdevice": 2505,
      "Ġput": 2506,
      "ample": 2507,
      "Ġwhite": 2508,
      "ored": 2509,
      "Ġprim": 2510,
      "Ġlikely": 2511,
      "Ġnegative": 2512,
      "ĠLearning": 2513,
      "inter": 2514,
      "augh": 2515,
      "ĠArtificial": 2516,
      "ython": 2517,
      "imum": 2518,
      "rency": 2519,
      "Ġprior": 2520,
      "Ġmagical": 2521,
      "ume": 2522,
      "ĠThree": 2523,
      "Ġshopping": 2524,
      "sequ": 2525,
      "ĠSet": 2526,
      "hest": 2527,
      "Ġregul": 2528,
      "Ġexercise": 2529,
      "pre": 2530,
      "lying": 2531,
      "Ġsuper": 2532,
      "epend": 2533,
      "Ġvisual": 2534,
      "Ġencoura": 2535,
      "Ġdemand": 2536,
      "cer": 2537,
      "dle": 2538,
      "mon": 2539,
      "Ġdivid": 2540,
      "Ġneural": 2541,
      "Ġplant": 2542,
      "atility": 2543,
      "Ġstorage": 2544,
      "ĠPe": 2545,
      "Ġadjust": 2546,
      "Ġtown": 2547,
      "ĠCar": 2548,
      "Ġinteg": 2549,
      "Ġcars": 2550,
      "Ġcorrect": 2551,
      "bility": 2552,
      "Ġsafe": 2553,
      "asic": 2554,
      "Ġanalyze": 2555,
      "print": 2556,
      "Ġpurchase": 2557,
      "ground": 2558,
      "ik": 2559,
      "ana": 2560,
      "ude": 2561,
      "hesis": 2562,
      "Ġrelevant": 2563,
      "ror": 2564,
      "Ġcomfort": 2565,
      "Ġterms": 2566,
      "Ġmoment": 2567,
      "rope": 2568,
      "Ġslow": 2569,
      "Ġrunning": 2570,
      "Ġtakes": 2571,
      "Ġmountain": 2572,
      "oman": 2573,
      "Ġexpress": 2574,
      "Ġrequires": 2575,
      "Ġfelt": 2576,
      "Ġresi": 2577,
      "amm": 2578,
      "ĠAut": 2579,
      "Ġemployees": 2580,
      "Ġpandemic": 2581,
      "istics": 2582,
      "struction": 2583,
      "Ġincome": 2584,
      "Ġpolicy": 2585,
      "ny": 2586,
      "Ġpark": 2587,
      "Ġgar": 2588,
      "Ġste": 2589,
      "Ġsimilar": 2590,
      "Ġcourage": 2591,
      "orrow": 2592,
      "Ġrevolution": 2593,
      "ender": 2594,
      "=\"": 2595,
      "bo": 2596,
      "Ġdeveloping": 2597,
      "und": 2598,
      "Ġhelping": 2599,
      "Ġroom": 2600,
      "Ġcreated": 2601,
      "ynt": 2602,
      "itation": 2603,
      "etic": 2604,
      "ĠPr": 2605,
      "ĠRec": 2606,
      "ball": 2607,
      "rate": 2608,
      "Ġexch": 2609,
      "ibility": 2610,
      "Ġreflect": 2611,
      "Ġsustainable": 2612,
      "inal": 2613,
      "izations": 2614,
      "Ġcontrast": 2615,
      "Ġsmart": 2616,
      "Ġextreme": 2617,
      "Ġobjects": 2618,
      "ĠEurope": 2619,
      "Ġlack": 2620,
      "ump": 2621,
      "ĠMon": 2622,
      "Ġmatter": 2623,
      "Ġpers": 2624,
      "assion": 2625,
      "ech": 2626,
      "ott": 2627,
      "oose": 2628,
      "Ġmillion": 2629,
      "Ġdr": 2630,
      "rypt": 2631,
      "Ġtrust": 2632,
      "lusion": 2633,
      "Ġtemperatures": 2634,
      "not": 2635,
      "ention": 2636,
      "Ġground": 2637,
      "Ġdiscover": 2638,
      "Ġdaily": 2639,
      "quid": 2640,
      "Ġrise": 2641,
      "aches": 2642,
      "Ġengaging": 2643,
      "Ġeggs": 2644,
      "Ġinit": 2645,
      "Ġexec": 2646,
      "ights": 2647,
      "Ġmargin": 2648,
      "Ġbar": 2649,
      "Ġmight": 2650,
      "Ġgen": 2651,
      "irl": 2652,
      "Ġsell": 2653,
      "Ġdecided": 2654,
      "ĠComp": 2655,
      "Ġpainting": 2656,
      "itable": 2657,
      "Ġfig": 2658,
      "Ġgoal": 2659,
      "Ġphone": 2660,
      "Ġhy": 2661,
      "Ġarr": 2662,
      "duction": 2663,
      "Ġinvolve": 2664,
      "Ġsupply": 2665,
      "Ġmid": 2666,
      "ications": 2667,
      "ĠDo": 2668,
      "Ġliquid": 2669,
      "Ġrecip": 2670,
      "num": 2671,
      "Ġfavor": 2672,
      "ĠCome": 2673,
      "Ġsoon": 2674,
      "cript": 2675,
      "zing": 2676,
      "Ġpow": 2677,
      "Ġbasic": 2678,
      "ird": 2679,
      "ĠQu": 2680,
      "Ġsecond": 2681,
      "Â°": 2682,
      "Ġenab": 2683,
      "ĠBl": 2684,
      "Ġculture": 2685,
      "://": 2686,
      "ava": 2687,
      "Ġstring": 2688,
      "Ġnovel": 2689,
      "pos": 2690,
      "Ġtaken": 2691,
      "Ġhope": 2692,
      "chain": 2693,
      "Ġorig": 2694,
      "Ġtrac": 2695,
      "Ġtopic": 2696,
      "oice": 2697,
      "Ġwild": 2698,
      "Ġeval": 2699,
      "ycle": 2700,
      "ocks": 2701,
      "Ġdisplay": 2702,
      "Ġtesting": 2703,
      "Ġsugar": 2704,
      "Ġdatabase": 2705,
      "ĠTwo": 2706,
      "rain": 2707,
      "Ġforward": 2708,
      "onom": 2709,
      "Ġwar": 2710,
      "Ġrout": 2711,
      "Ġseem": 2712,
      "Ġcomputers": 2713,
      "Ġaware": 2714,
      "Ġquestion": 2715,
      "ched": 2716,
      "sol": 2717,
      "Ġlarger": 2718,
      "Ġpersonalized": 2719,
      "ext": 2720,
      "ĠTake": 2721,
      "Ġuni": 2722,
      "Ġrad": 2723,
      "Ġoption": 2724,
      "Ġfresh": 2725,
      "Ġparticular": 2726,
      "Ġaudience": 2727,
      "Ġstates": 2728,
      "Ġimm": 2729,
      "Ġconnected": 2730,
      "Ġconditions": 2731,
      "12": 2732,
      "fully": 2733,
      "Ġcrit": 2734,
      "outh": 2735,
      "Ġcontact": 2736,
      "Ġprefer": 2737,
      "Ġachieve": 2738,
      "Ġpet": 2739,
      "Ġmoon": 2740,
      "Ġproduce": 2741,
      "ĠTechnology": 2742,
      "Ġ*": 2743,
      "Ġpack": 2744,
      "Ġlength": 2745,
      "ken": 2746,
      "pite": 2747,
      "the": 2748,
      "Ġrecent": 2749,
      "11": 2750,
      "Ġplastic": 2751,
      "Ġdatas": 2752,
      "earch": 2753,
      "ttps": 2754,
      "..": 2755,
      "Ġnav": 2756,
      "Ġimages": 2757,
      "==": 2758,
      "ified": 2759,
      "Ġexamples": 2760,
      "],": 2761,
      "Ġtw": 2762,
      "Ġbreat": 2763,
      "Ġemb": 2764,
      "Ġfall": 2765,
      "Ġsentiment": 2766,
      "su": 2767,
      "Ġfail": 2768,
      "Ġbow": 2769,
      "Ġeth": 2770,
      "Ġupd": 2771,
      "Ġreport": 2772,
      "Ġcheese": 2773,
      "Ġsalt": 2774,
      "lation": 2775,
      "rant": 2776,
      "Ġinsp": 2777,
      "Ġgre": 2778,
      "Ġenough": 2779,
      "Ġfollows": 2780,
      "Ġdraw": 2781,
      "sh": 2782,
      "time": 2783,
      "Ġvolatility": 2784,
      ":**": 2785,
      "Ġgold": 2786,
      "Ġimage": 2787,
      "ĠFirst": 2788,
      "Ġquant": 2789,
      "Ġpatient": 2790,
      "Ġplaying": 2791,
      "Ġadventure": 2792,
      "Ġrestaurant": 2793,
      "Ġfrequ": 2794,
      "Ġmyster": 2795,
      "ises": 2796,
      "Ġspeak": 2797,
      "Ġelement": 2798,
      "Ġdistrib": 2799,
      "Ġrules": 2800,
      "Ġblog": 2801,
      "ele": 2802,
      "Ġcover": 2803,
      "Ġwatch": 2804,
      "Ġchat": 2805,
      "Ġprograms": 2806,
      "Ġsn": 2807,
      "ards": 2808,
      "Ġage": 2809,
      "ĠSer": 2810,
      "ared": 2811,
      "Ġrights": 2812,
      "unt": 2813,
      "Ġappli": 2814,
      "Ġequal": 2815,
      "Ġconsequ": 2816,
      "Ġvac": 2817,
      "Ġblack": 2818,
      "Ġlaw": 2819,
      "Ġlayer": 2820,
      "rees": 2821,
      "ĠSu": 2822,
      "Ġsort": 2823,
      "urning": 2824,
      "ĠPo": 2825,
      "Ġbalance": 2826,
      "Ġcred": 2827,
      "Ġgas": 2828,
      "Ġmoves": 2829,
      "uments": 2830,
      "Ġes": 2831,
      "ingdom": 2832,
      "Ġflex": 2833,
      "Ġdest": 2834,
      "Ġterm": 2835,
      "Ġtips": 2836,
      "Ġpres": 2837,
      "Ġincreasingly": 2838,
      "itiz": 2839,
      "Ġvill": 2840,
      "Ġshows": 2841,
      "Ġtransact": 2842,
      "Ġsong": 2843,
      "ĠPython": 2844,
      "arent": 2845,
      "Ġsmo": 2846,
      "Ġinsights": 2847,
      "Ġtool": 2848,
      "Ġdetermined": 2849,
      "Ġthought": 2850,
      "aw": 2851,
      "hing": 2852,
      "Ġrelax": 2853,
      "We": 2854,
      "uted": 2855,
      "Ġteacher": 2856,
      "Ġavoid": 2857,
      "Ġspeech": 2858,
      "Ġwalking": 2859,
      "Ġapproach": 2860,
      "lease": 2861,
      "atives": 2862,
      "iced": 2863,
      "Ġforms": 2864,
      "une": 2865,
      "ffee": 2866,
      "ĠJava": 2867,
      "Ġessay": 2868,
      "Ġassig": 2869,
      "ung": 2870,
      "Ġcontract": 2871,
      "Ġ30": 2872,
      "bit": 2873,
      "Ġmix": 2874,
      "ĠChe": 2875,
      "Ġ11": 2876,
      "ĠDis": 2877,
      "ounter": 2878,
      "Ġmorning": 2879,
      "itude": 2880,
      "ĠIs": 2881,
      "Ġpromot": 2882,
      "Ġbirds": 2883,
      "Ġharm": 2884,
      "Ġleft": 2885,
      "Ġpolitical": 2886,
      "equ": 2887,
      "ites": 2888,
      "marize": 2889,
      "Ġnavig": 2890,
      "ypot": 2891,
      "poons": 2892,
      "Ġfire": 2893,
      "Ġunc": 2894,
      "Ġlargest": 2895,
      "Ġlimit": 2896,
      "Ġtail": 2897,
      "Ġbecoming": 2898,
      "ivil": 2899,
      "Ġequation": 2900,
      "Ġap": 2901,
      "andom": 2902,
      "Ġbaking": 2903,
      "Ġec": 2904,
      "Ġstru": 2905,
      "ĠPar": 2906,
      "Ġauthor": 2907,
      "faction": 2908,
      "ĠYork": 2909,
      "reci": 2910,
      "set": 2911,
      "ĠX": 2912,
      "Ġ**": 2913,
      "Ġsens": 2914,
      "ĠTr": 2915,
      "Ġdiagn": 2916,
      "Ġhighest": 2917,
      "Ġremind": 2918,
      "ĠIntelligence": 2919,
      "Ġgarlic": 2920,
      "18": 2921,
      "Ġforce": 2922,
      "aged": 2923,
      "anges": 2924,
      "Ġemph": 2925,
      "work": 2926,
      "Ġchem": 2927,
      "Ġopportunity": 2928,
      "Ġsect": 2929,
      "Ġpan": 2930,
      "Ġvib": 2931,
      "Ġcool": 2932,
      "Ġcolle": 2933,
      "ĠSoc": 2934,
      "Ġemer": 2935,
      "Ġbeach": 2936,
      "ĠSo": 2937,
      "Ġ100": 2938,
      "ends": 2939,
      "Ġcommunity": 2940,
      "Ġdate": 2941,
      "Ġask": 2942,
      "Ġvehicles": 2943,
      "Ġled": 2944,
      "Ġanalyt": 2945,
      "Ġtopics": 2946,
      "Ġsubject": 2947,
      "Ġabove": 2948,
      "Ġsurvey": 2949,
      "Ġexisting": 2950,
      "Ġbowl": 2951,
      "iate": 2952,
      "Ġcities": 2953,
      "Ġhor": 2954,
      "izes": 2955,
      "ended": 2956,
      "Ġpepper": 2957,
      "rench": 2958,
      "iction": 2959,
      "Ġdiseases": 2960,
      "Ġmysterious": 2961,
      "pe": 2962,
      "Ġfit": 2963,
      "ctions": 2964,
      "ĠEvery": 2965,
      "othing": 2966,
      "Ġtriangle": 2967,
      "Ġcontinu": 2968,
      "'ll": 2969,
      "ches": 2970,
      "Ġinvent": 2971,
      "Ġlab": 2972,
      "Ġrat": 2973,
      "Ġdescrib": 2974,
      "Ġactive": 2975,
      "Ġsentences": 2976,
      "house": 2977,
      "Ġvoice": 2978,
      "Ġvisit": 2979,
      "comes": 2980,
      "na": 2981,
      "Ġice": 2982,
      "Ġreact": 2983,
      "Ġgirl": 2984,
      "ĠSE": 2985,
      "ĠLe": 2986,
      "name": 2987,
      "Ġsav": 2988,
      "amed": 2989,
      "rial": 2990,
      "ĠCompose": 2991,
      "Ġdiscount": 2992,
      "Ġcontains": 2993,
      "Ġmeeting": 2994,
      "Ġsymb": 2995,
      "AI": 2996,
      "Ġfast": 2997,
      "ssil": 2998,
      "Ġord": 2999,
      "Ġprofessional": 3000,
      "Ġutil": 3001,
      "Ġmel": 3002,
      "ĠAt": 3003,
      "Ġfoot": 3004,
      "Ġaccom": 3005,
      "Ġbackground": 3006,
      "Ġinstructions": 3007,
      "Ġball": 3008,
      "Ġproductivity": 3009,
      "ogle": 3010,
      "osing": 3011,
      "Ġaccept": 3012,
      "Ġappear": 3013,
      "Ġplayer": 3014,
      "Ġpressure": 3015,
      "Ġconsequences": 3016,
      "iring": 3017,
      "ĠCo": 3018,
      "Ġfear": 3019,
      "Ġexpected": 3020,
      "Ġinv": 3021,
      "icro": 3022,
      "Ġgard": 3023,
      "Ġbegan": 3024,
      "Ġhere": 3025,
      "Ġcommunicate": 3026,
      "Ġamounts": 3027,
      "oxide": 3028,
      "Ġstrugg": 3029,
      "ators": 3030,
      "enge": 3031,
      "Ġeating": 3032,
      "Ġstat": 3033,
      "Ġoutcomes": 3034,
      "Ġparty": 3035,
      "Ġpieces": 3036,
      "rill": 3037,
      "ĠMan": 3038,
      "Ġadapt": 3039,
      "Ġdescription": 3040,
      "Ġopin": 3041,
      "Ġresponsible": 3042,
      "Ġeventually": 3043,
      "Ġexcell": 3044,
      "dri": 3045,
      "list": 3046,
      "Ġcream": 3047,
      "Ġcitiz": 3048,
      "Ġalong": 3049,
      "Ġspending": 3050,
      "ĠĠĠĠĠ": 3051,
      "Ġbuilding": 3052,
      "Ġsatisfaction": 3053,
      "ht": 3054,
      "Ġcase": 3055,
      "abilities": 3056,
      "Ġindepend": 3057,
      "Ġpractices": 3058,
      "vised": 3059,
      "Ġloyalty": 3060,
      "Ġtowards": 3061,
      "lear": 3062,
      "ĠPot": 3063,
      "ager": 3064,
      "Ġamong": 3065,
      "Ġsmaller": 3066,
      "Ġconsumption": 3067,
      "Person": 3068,
      "stit": 3069,
      "Ġcomes": 3070,
      "umn": 3071,
      "ptop": 3072,
      "Ġpromote": 3073,
      "Ġresponse": 3074,
      "Ġdetermine": 3075,
      "Ġanswer": 3076,
      "ley": 3077,
      "Ġrefer": 3078,
      "ember": 3079,
      "Ġinterface": 3080,
      "Ġlaptop": 3081,
      "Ġchanged": 3082,
      "Ġadditional": 3083,
      "```": 3084,
      "Ch": 3085,
      "Ġwa": 3086,
      "icious": 3087,
      "Ġreview": 3088,
      "Ġhai": 3089,
      "ĠBut": 3090,
      "apan": 3091,
      "Ġmembers": 3092,
      "Ġmessage": 3093,
      "Ġreliable": 3094,
      "(\"": 3095,
      "input": 3096,
      "Ġstream": 3097,
      "ocol": 3098,
      "Ġbeneficial": 3099,
      "Ġbrave": 3100,
      ");": 3101,
      "min": 3102,
      "inner": 3103,
      "Ġparent": 3104,
      "ĠSec": 3105,
      "Ġdesired": 3106,
      "ancing": 3107,
      "Ġdioxide": 3108,
      "Ġgetting": 3109,
      "Ġeyes": 3110,
      "stance": 3111,
      "Ġsay": 3112,
      "Ġhypot": 3113,
      "Ġappreci": 3114,
      "Ġelse": 3115,
      "Ġtitle": 3116,
      "Ġstyle": 3117,
      "Ġaltern": 3118,
      "Ġpredictions": 3119,
      "Ph": 3120,
      "ĠAf": 3121,
      "ategor": 3122,
      "Ġnumer": 3123,
      "Ġrespond": 3124,
      "Ġfuels": 3125,
      "Ġsurface": 3126,
      "ĠFrance": 3127,
      "Ġvideo": 3128,
      "Ġcourse": 3129,
      "Ġevalu": 3130,
      "omen": 3131,
      "agon": 3132,
      "ĠOver": 3133,
      "Ġoutside": 3134,
      "Ġautomated": 3135,
      "Ġintrodu": 3136,
      "ened": 3137,
      "Ġautomate": 3138,
      "Ġinteresting": 3139,
      "Ġaccurately": 3140,
      "Ġlifest": 3141,
      "imal": 3142,
      "raw": 3143,
      "ĠRob": 3144,
      "Ġregularly": 3145,
      "af": 3146,
      "uable": 3147,
      "Ġopp": 3148,
      "Ġlived": 3149,
      "ĠSome": 3150,
      "achines": 3151,
      "Ġcontext": 3152,
      "Ġsweet": 3153,
      "Ġhol": 3154,
      "Ġcannot": 3155,
      "umb": 3156,
      "ellow": 3157,
      "Ġroad": 3158,
      "Ġlaws": 3159,
      "Ġwalk": 3160,
      "Ġwritten": 3161,
      "azon": 3162,
      "Ġcalled": 3163,
      "Ġscientific": 3164,
      "ĠSummarize": 3165,
      "Ġ/": 3166,
      "Ġbenefit": 3167,
      "enced": 3168,
      "Ġsil": 3169,
      "Ġseason": 3170,
      "Ġ200": 3171,
      "Ġ==": 3172,
      "Ġvalid": 3173,
      "Ġrising": 3174,
      "Ġcurrency": 3175,
      "ought": 3176,
      "Ġfocused": 3177,
      "iversity": 3178,
      "inary": 3179,
      "Ġge": 3180,
      "Ġadvert": 3181,
      "Ġfossil": 3182,
      "Ġcold": 3183,
      "oods": 3184,
      "Ġoffering": 3185,
      "ycling": 3186,
      "ky": 3187,
      "hel": 3188,
      "serve": 3189,
      "Ġshape": 3190,
      "ĠIntern": 3191,
      "ler": 3192,
      "enc": 3193,
      "alse": 3194,
      "ades": 3195,
      "ustomer": 3196,
      "Ġaccording": 3197,
      "Ġcm": 3198,
      "Ġplaces": 3199,
      "ĠJapan": 3200,
      "Ġprec": 3201,
      "Ġsides": 3202,
      "room": 3203,
      "raft": 3204,
      "Ġstar": 3205,
      "Ġgraph": 3206,
      "ĠIncre": 3207,
      "Ġprimary": 3208,
      "ised": 3209,
      "ured": 3210,
      "oph": 3211,
      "ĠGerm": 3212,
      "Ġindic": 3213,
      "Ġlanguages": 3214,
      "man": 3215,
      "ters": 3216,
      "ĠComput": 3217,
      "cent": 3218,
      "gon": 3219,
      "ster": 3220,
      "Ġgames": 3221,
      "------": 3222,
      "Ġinstead": 3223,
      "Ġengineering": 3224,
      "Ġchallenge": 3225,
      "ither": 3226,
      "Ġheav": 3227,
      "Ġdelic": 3228,
      "Ġincor": 3229,
      "aching": 3230,
      "Ġsche": 3231,
      "Ġindex": 3232,
      "Ġthroughout": 3233,
      "Ġorganizations": 3234,
      "ĠGoogle": 3235,
      "Ġhom": 3236,
      "Ġparticip": 3237,
      "Ġmist": 3238,
      "Ġkit": 3239,
      "Ġcoffee": 3240,
      "ĠHowever": 3241,
      "Ġprepare": 3242,
      "ĠChina": 3243,
      "Ġconflic": 3244,
      "Ġlatest": 3245,
      "ĠAmazon": 3246,
      "ĠAfric": 3247,
      "sy": 3248,
      "Ġwall": 3249,
      "ĠGreat": 3250,
      "Ġorganized": 3251,
      "Ġlocated": 3252,
      "Ġextract": 3253,
      "Ġsquare": 3254,
      "cient": 3255,
      "Ġâ": 3256,
      "Ġmal": 3257,
      "ctor": 3258,
      "Ġstories": 3259,
      "ĠCol": 3260,
      "ilt": 3261,
      "Ġsaid": 3262,
      "Ġchoice": 3263,
      "ĠFl": 3264,
      "Ġtransform": 3265,
      "Ġsurround": 3266,
      "Ġlogo": 3267,
      "Ġcy": 3268,
      "Ġcast": 3269,
      "Ġsand": 3270,
      "oration": 3271,
      "Ġ17": 3272,
      "Ġlonger": 3273,
      "Ġbelieve": 3274,
      "Ġexchange": 3275,
      "elebr": 3276,
      "Ġlifestyle": 3277,
      "15": 3278,
      "friend": 3279,
      "night": 3280,
      "Ġfish": 3281,
      "ĠFrench": 3282,
      "Ġsaw": 3283,
      "Ġgoods": 3284,
      "Ġvirus": 3285,
      "Ġtablespoons": 3286,
      "inks": 3287,
      "Ġpassion": 3288,
      "Ġdam": 3289,
      "ulate": 3290,
      "Ġseries": 3291,
      "Ġplatforms": 3292,
      "Ġbatter": 3293,
      "Ġanalytics": 3294,
      "ids": 3295,
      "ĠMed": 3296,
      "Ġsequ": 3297,
      "Ġcitizens": 3298,
      "mit": 3299,
      "Ġcut": 3300,
      "Ġlands": 3301,
      "eter": 3302,
      "Ġstre": 3303,
      "Ġprev": 3304,
      "Ġmedium": 3305,
      "Ġbrand": 3306,
      "Ġoperations": 3307,
      "TM": 3308,
      "ĠHar": 3309,
      "Ġmeaningful": 3310,
      "ensive": 3311,
      "Ġonce": 3312,
      "Ġcauses": 3313,
      "servation": 3314,
      "Ġexcellent": 3315,
      "'re": 3316,
      "Ġwoman": 3317,
      "Ġded": 3318,
      "olution": 3319,
      "Ġamaz": 3320,
      "Ġfriendly": 3321,
      "Ġbias": 3322,
      "Ġimplications": 3323,
      "Ġleast": 3324,
      "Ġ25": 3325,
      "Ġimproving": 3326,
      "forest": 3327,
      "Ġhold": 3328,
      "Step": 3329,
      "Ġfavorite": 3330,
      "Ġorders": 3331,
      "life": 3332,
      "Ġfamous": 3333,
      "selves": 3334,
      "Ġhabit": 3335,
      "Ġrecipe": 3336,
      "know": 3337,
      "amer": 3338,
      "ership": 3339,
      "Ġchatbot": 3340,
      "Ġchemical": 3341,
      "He": 3342,
      "ann": 3343,
      "Ġconven": 3344,
      "Ġweight": 3345,
      "Ġarri": 3346,
      "words": 3347,
      "Ġrap": 3348,
      "Ġremote": 3349,
      "Ġresulting": 3350,
      "Ġattract": 3351,
      "ĠEnglish": 3352,
      "Ġcollaboration": 3353,
      "ltimately": 3354,
      "Ġvibrant": 3355,
      "Ġmemory": 3356,
      "Ġestim": 3357,
      "xy": 3358,
      "Ġcats": 3359,
      "Ġfix": 3360,
      "Ġtraffic": 3361,
      "like": 3362,
      "Ġclassic": 3363,
      "Ġmark": 3364,
      "asons": 3365,
      "Ġheard": 3366,
      "Ì¦Ì¦Ì¦Ì¦": 3367,
      "Wh": 3368,
      "sing": 3369,
      "str": 3370,
      "Ġmachines": 3371,
      "imes": 3372,
      "acter": 3373,
      "Ġscore": 3374,
      "rame": 3375,
      "Ġol": 3376,
      "chit": 3377,
      "Ġworkplace": 3378,
      "Ġchanging": 3379,
      "Ġdegrees": 3380,
      "Ġyet": 3381,
      "ablish": 3382,
      "Ġorganization": 3383,
      "Ġlocation": 3384,
      "Ġcris": 3385,
      "Ġcenter": 3386,
      "cape": 3387,
      "zz": 3388,
      "Ġ16": 3389,
      "ĠHum": 3390,
      "Ġeffectively": 3391,
      "Ġinteractive": 3392,
      "cast": 3393,
      "Ġbase": 3394,
      "ĠCO": 3395,
      "ĠStart": 3396,
      "enses": 3397,
      "Ġdistance": 3398,
      "Ġtrying": 3399,
      "Ġriver": 3400,
      "Ġengagement": 3401,
      "asket": 3402,
      "Ġblockchain": 3403,
      "friendly": 3404,
      "ont": 3405,
      "Ġhost": 3406,
      "Ġmetap": 3407,
      "Ġdrive": 3408,
      "Ġargument": 3409,
      "Ġcross": 3410,
      "Ġfra": 3411,
      "Ġfair": 3412,
      "ĠAre": 3413,
      "Ġincred": 3414,
      "Ġresponsi": 3415,
      "iation": 3416,
      "lines": 3417,
      "Ġreally": 3418,
      "Ġru": 3419,
      "Ġhighly": 3420,
      "Ġexploring": 3421,
      "Ġlimited": 3422,
      "Ġoperating": 3423,
      "Ġmonths": 3424,
      "Ġprivacy": 3425,
      "iol": 3426,
      "Ġaff": 3427,
      "Ġten": 3428,
      "ĠHave": 3429,
      "Ġsports": 3430,
      "Ġstarted": 3431,
      "Ġmilk": 3432,
      "Ġdelivery": 3433,
      "chitect": 3434,
      "Ġann": 3435,
      "Ġhid": 3436,
      "Ġthinking": 3437,
      "Ġrequired": 3438,
      "ĠRevolution": 3439,
      "Ġeducational": 3440,
      "ront": 3441,
      "Ġletter": 3442,
      "Ġearly": 3443,
      "fficient": 3444,
      "Ġdiv": 3445,
      "ĠMe": 3446,
      "Ġinvestment": 3447,
      "Ġshares": 3448,
      "Ġcareer": 3449,
      "Ġrobots": 3450,
      "Ġdisease": 3451,
      "Ġbrown": 3452,
      "17": 3453,
      "Ġwaves": 3454,
      "aries": 3455,
      "Ġcups": 3456,
      "Ġbox": 3457,
      "Ġfruits": 3458,
      "imize": 3459,
      "Ġconver": 3460,
      "ĠGl": 3461,
      "icken": 3462,
      "ĠAnaly": 3463,
      "Ġwanted": 3464,
      "Ġlittle": 3465,
      "board": 3466,
      "Ġemphasi": 3467,
      "Ġlot": 3468,
      "ĠBu": 3469,
      "ĠOther": 3470,
      "Ġadvantage": 3471,
      "Ġliquidity": 3472,
      "Ġpowder": 3473,
      "rim": 3474,
      "Ġlines": 3475,
      "Ġoutdo": 3476,
      "Ġsurv": 3477,
      "Ġjobs": 3478,
      "LE": 3479,
      "My": 3480,
      "oding": 3481,
      "Ġapples": 3482,
      "Ġattention": 3483,
      "Ġprofit": 3484,
      "Ġpolicies": 3485,
      "osystem": 3486,
      "Ġprin": 3487,
      "Ġdeveloped": 3488,
      "yond": 3489,
      "het": 3490,
      "Ġhttps": 3491,
      "Ġconnection": 3492,
      "Ġcentury": 3493,
      "Ġtook": 3494,
      "Ġemotions": 3495,
      "',": 3496,
      "Ġsnow": 3497,
      "ords": 3498,
      "ests": 3499,
      "Ġimpacts": 3500,
      "ressive": 3501,
      "Ġ}": 3502,
      "Ġtell": 3503,
      "Ġflour": 3504,
      "Ġremember": 3505,
      "hemat": 3506,
      "edom": 3507,
      "views": 3508,
      "Ġassets": 3509,
      "Ġbreaks": 3510,
      "Ġcharacteristics": 3511,
      "Ġpayment": 3512,
      "Ġliter": 3513,
      "Phone": 3514,
      "lo": 3515,
      "ĠZ": 3516,
      "Ġcash": 3517,
      "ison": 3518,
      "ĠMar": 3519,
      "ĠIts": 3520,
      "ĠOur": 3521,
      "Ġstrange": 3522,
      "Ġsolving": 3523,
      "sident": 3524,
      "Ġcalculate": 3525,
      "Ġaccompl": 3526,
      "Ġprojects": 3527,
      "Ġgreenhouse": 3528,
      "Ġconsists": 3529,
      "Ġdocument": 3530,
      "ixt": 3531,
      "kes": 3532,
      "Ġtou": 3533,
      "asc": 3534,
      "eters": 3535,
      "Ġthreat": 3536,
      "Ġbear": 3537,
      "ĠThen": 3538,
      "eline": 3539,
      "Ġincent": 3540,
      "Ġvolume": 3541,
      "Ġfigure": 3542,
      "ĠSocial": 3543,
      "iling": 3544,
      "Ġparts": 3545,
      "Ġang": 3546,
      "Ġbag": 3547,
      "Ġmis": 3548,
      "ĠSol": 3549,
      "ili": 3550,
      "Ġevidence": 3551,
      "Ġboard": 3552,
      "Ġassign": 3553,
      "ision": 3554,
      "ĠHere": 3555,
      "Ġrandom": 3556,
      "ĠBoth": 3557,
      "Ġethical": 3558,
      "Ġactions": 3559,
      "Ġstores": 3560,
      "ĠPeople": 3561,
      "ĠAutom": 3562,
      "II": 3563,
      "power": 3564,
      "ĠCity": 3565,
      "ĠPerson": 3566,
      "Ġ50": 3567,
      "Ġsets": 3568,
      "Ġecosystem": 3569,
      "antic": 3570,
      "irm": 3571,
      "phone": 3572,
      "Ġadvice": 3573,
      "Ġassess": 3574,
      "Ġmovement": 3575,
      "!\"": 3576,
      "Ġpair": 3577,
      "idge": 3578,
      "Ġdeath": 3579,
      "Ġkingdom": 3580,
      "Ġplayers": 3581,
      "Ġpresentation": 3582,
      "ussi": 3583,
      "Ġdanger": 3584,
      "Ġgap": 3585,
      "Ġeffort": 3586,
      "Ġeye": 3587,
      "Ġmaximum": 3588,
      "Ġperspect": 3589,
      "go": 3590,
      "ached": 3591,
      "ĠGet": 3592,
      "Ġclo": 3593,
      "Ġdoing": 3594,
      "ological": 3595,
      "Ġautomation": 3596,
      "Ġtransactions": 3597,
      "Ġdelicious": 3598,
      "ER": 3599,
      "ID": 3600,
      "Ġsuitable": 3601,
      "Ġfeet": 3602,
      "Ġarchitect": 3603,
      "Ġdirection": 3604,
      "hold": 3605,
      "Ġcategor": 3606,
      "Ġet": 3607,
      "Ġur": 3608,
      "Ġnamed": 3609,
      "Ġbeyond": 3610,
      "Ġyellow": 3611,
      "Ġexperiment": 3612,
      "Ġinfluence": 3613,
      "xygen": 3614,
      "CT": 3615,
      "Ġquery": 3616,
      "Ġcreativity": 3617,
      "Ġeither": 3618,
      "ĠFrom": 3619,
      "ĠProduct": 3620,
      "Ġfocuses": 3621,
      "Ġcompared": 3622,
      "Ġelectricity": 3623,
      "ĠSmith": 3624,
      "Ġrates": 3625,
      "Ġsepar": 3626,
      "Ġentertain": 3627,
      "Ġconclusion": 3628,
      "Ġguid": 3629,
      "Ġgroups": 3630,
      "Ġcampaigns": 3631,
      "Ġtracking": 3632,
      "Ġhidden": 3633,
      "OM": 3634,
      "Ġcake": 3635,
      "Ġcelebr": 3636,
      "rap": 3637,
      "Ġcand": 3638,
      "duc": 3639,
      "Ġknew": 3640,
      "Ġinvesting": 3641,
      "where": 3642,
      "Ġoven": 3643,
      "Ġtomat": 3644,
      "Ġmass": 3645,
      "ouds": 3646,
      "Ġgiving": 3647,
      "ada": 3648,
      "Ġfinding": 3649,
      "Ġreleased": 3650,
      "Ġdreams": 3651,
      "'.": 3652,
      "atoes": 3653,
      "izz": 3654,
      "Ġcreatures": 3655,
      "Ġolive": 3656,
      "ker": 3657,
      "onic": 3658,
      "Ġcre": 3659,
      "isms": 3660,
      "Ġlon": 3661,
      "Ġyield": 3662,
      "agraph": 3663,
      "ĠKe": 3664,
      "ĠClimate": 3665,
      "Ġvillage": 3666,
      "Ġins": 3667,
      "Ġimag": 3668,
      "osure": 3669,
      "ĠDespite": 3670,
      "Ġprovided": 3671,
      "ĠCont": 3672,
      "Ġready": 3673,
      "Ġdriving": 3674,
      "Ġpresence": 3675,
      "Ġgarden": 3676,
      "\":": 3677,
      "Ġcrypt": 3678,
      "Ġanx": 3679,
      "Ġheld": 3680,
      "Ġscal": 3681,
      "Ġloop": 3682,
      "venue": 3683,
      "Ġextra": 3684,
      "Ġverb": 3685,
      "21": 3686,
      "ufact": 3687,
      "Ġreality": 3688,
      "ĠTra": 3689,
      "Ġstir": 3690,
      "Ġconduct": 3691,
      "Ġshap": 3692,
      "ĠBrit": 3693,
      "ĠRo": 3694,
      "Ġinternational": 3695,
      "ĠResearch": 3696,
      "Ġdetails": 3697,
      "ony": 3698,
      "Ġhal": 3699,
      "ĠDear": 3700,
      "Ġrecognize": 3701,
      "Ġcyber": 3702,
      "Ġrapid": 3703,
      "-|": 3704,
      "Ġfarm": 3705,
      "Ġmen": 3706,
      "Ġenh": 3707,
      "Ġenables": 3708,
      "phant": 3709,
      "ĠChar": 3710,
      "Ġhappy": 3711,
      "ĠAmerica": 3712,
      "Ġpiece": 3713,
      "14": 3714,
      "atory": 3715,
      "Ġinterp": 3716,
      "Ġrecently": 3717,
      "Ġdefin": 3718,
      "Ġmathemat": 3719,
      "Ġinstall": 3720,
      "solving": 3721,
      "td": 3722,
      "Ġstorm": 3723,
      "ially": 3724,
      "ival": 3725,
      "ĠRep": 3726,
      "nings": 3727,
      "Ġadvance": 3728,
      "Ġfutures": 3729,
      "Ġallowed": 3730,
      "Ġdocuments": 3731,
      "ynam": 3732,
      "Ġmonitor": 3733,
      "Ġconvey": 3734,
      "ĠPer": 3735,
      "Ġdisru": 3736,
      "Ġcommit": 3737,
      "And": 3738,
      "hent": 3739,
      "Ġreward": 3740,
      "Ġgent": 3741,
      "ĠAcc": 3742,
      "Ġvast": 3743,
      "ĠHealth": 3744,
      "Ġadvanced": 3745,
      "Ġleader": 3746,
      "ĠYour": 3747,
      "Ġvariable": 3748,
      "Ġfoods": 3749,
      "aff": 3750,
      "key": 3751,
      "Ġ2020": 3752,
      "urt": 3753,
      "ĠSouth": 3754,
      "ulf": 3755,
      "ĠEl": 3756,
      "arian": 3757,
      "Ġanything": 3758,
      "Ġanalyzing": 3759,
      "Ġvision": 3760,
      "Ġ</": 3761,
      "ĠImpro": 3762,
      "Ġpeaceful": 3763,
      "Ġselection": 3764,
      "Ġratio": 3765,
      "making": 3766,
      "Ġfight": 3767,
      "Ġmission": 3768,
      "ĠSun": 3769,
      "Ġvaluable": 3770,
      "Ġreturns": 3771,
      "coming": 3772,
      "Ġshared": 3773,
      "Ġexcited": 3774,
      "Ġencourages": 3775,
      "down": 3776,
      "ein": 3777,
      "Ġlink": 3778,
      "ĠHis": 3779,
      "Ġacces": 3780,
      "Ġlibr": 3781,
      "Ġwebsites": 3782,
      "Ġencourage": 3783,
      "being": 3784,
      "Ġconversation": 3785,
      "Ġcredit": 3786,
      "Ġsymbol": 3787,
      "ike": 3788,
      "ties": 3789,
      "Ġrepl": 3790,
      "Ġgro": 3791,
      "Ġgot": 3792,
      "Ġinterview": 3793,
      "Ġfields": 3794,
      "force": 3795,
      "storm": 3796,
      "Ġorange": 3797,
      "ĠThrough": 3798,
      "Ġsurpr": 3799,
      "Ġprotection": 3800,
      "Ġple": 3801,
      "Ġreasons": 3802,
      "verb": 3803,
      "Ġyog": 3804,
      "Ġtele": 3805,
      "ĠNatural": 3806,
      "Ġdish": 3807,
      "ĠReg": 3808,
      "Ġelectron": 3809,
      "ĠiPhone": 3810,
      "Ġcentral": 3811,
      "Ġdemon": 3812,
      "25": 3813,
      "most": 3814,
      "rong": 3815,
      "ĠAnd": 3816,
      "Ġclouds": 3817,
      "oost": 3818,
      "Ġcarry": 3819,
      "Ġfinally": 3820,
      "Ġfeelings": 3821,
      "culate": 3822,
      "Ġcollege": 3823,
      "Ġtheory": 3824,
      "Ġcycle": 3825,
      "Ġeat": 3826,
      "Ġlabor": 3827,
      "verty": 3828,
      "ĠCat": 3829,
      "Ġdoor": 3830,
      "Ġauthent": 3831,
      "Ġhandle": 3832,
      "))": 3833,
      "cher": 3834,
      "Ġcivil": 3835,
      "Ġinside": 3836,
      "iration": 3837,
      "Ġefficiently": 3838,
      "Ġoccurs": 3839,
      "ocolate": 3840,
      "Ġdinner": 3841,
      "irus": 3842,
      "ĠDec": 3843,
      "Ġleaves": 3844,
      "Ġtheme": 3845,
      "Ġhistor": 3846,
      "Ġphotos": 3847,
      "onomous": 3848,
      "Ġ>": 3849,
      "ĠAc": 3850,
      "Ġcomposed": 3851,
      "anging": 3852,
      "Ġqual": 3853,
      "Ġgeneral": 3854,
      "Ġfreedom": 3855,
      "Ġinnovative": 3856,
      "Ġgentle": 3857,
      "ying": 3858,
      "inct": 3859,
      "Ġfat": 3860,
      "Ġenable": 3861,
      "dule": 3862,
      "Ġpoverty": 3863,
      "ello": 3864,
      "Ġrock": 3865,
      "Ġretail": 3866,
      "Ġasset": 3867,
      "ĠIntro": 3868,
      "www": 3869,
      "Ġdataset": 3870,
      "Ġsmooth": 3871,
      "sych": 3872,
      "Ġmetaphor": 3873,
      "Ġprob": 3874,
      "Ġincreases": 3875,
      "Ġwonder": 3876,
      "Ġreceive": 3877,
      "Ġslowly": 3878,
      "iant": 3879,
      "inated": 3880,
      "Ġbasket": 3881,
      "Ġstocks": 3882,
      "ification": 3883,
      "Ġexpression": 3884,
      "Ġmulti": 3885,
      "Ġclasses": 3886,
      "Ġconsumer": 3887,
      "Ġuniverse": 3888,
      "Ġcamer": 3889,
      "Ġsou": 3890,
      "Ġbott": 3891,
      "Ġlost": 3892,
      "Ġentire": 3893,
      "driven": 3894,
      "fit": 3895,
      "Ġancient": 3896,
      "Ġdou": 3897,
      "Ġrevers": 3898,
      "iger": 3899,
      "Ġran": 3900,
      "ĠStud": 3901,
      "ready": 3902,
      "Ġdragon": 3903,
      "\"\"": 3904,
      "Ġdial": 3905,
      "Ġtaxes": 3906,
      "Ġclassification": 3907,
      "Ġ//": 3908,
      "Ġsau": 3909,
      "Ġabs": 3910,
      "Ġscen": 3911,
      "Ġcontinue": 3912,
      "Ġtall": 3913,
      "ino": 3914,
      "ĠGe": 3915,
      "Ġuseful": 3916,
      "Ġstudying": 3917,
      "Ġdiscounts": 3918,
      "de": 3919,
      "ma": 3920,
      "Ġsusp": 3921,
      "Ġsoil": 3922,
      "uck": 3923,
      "Ġregard": 3924,
      "Ġlaunch": 3925,
      "Ġtrip": 3926,
      "Ġmiddle": 3927,
      "VID": 3928,
      "fol": 3929,
      "gredients": 3930,
      "Ġnuc": 3931,
      "Ġalready": 3932,
      "Ġtrained": 3933,
      "Ġrecords": 3934,
      "Ġfunctions": 3935,
      "Ġreading": 3936,
      "ĠAlice": 3937,
      "LP": 3938,
      "rors": 3939,
      "Ġpen": 3940,
      "Ġconstant": 3941,
      "Ġemployee": 3942,
      "Ġparagraph": 3943,
      "Ġemotional": 3944,
      "fs": 3945,
      "Ġbank": 3946,
      "Ġusage": 3947,
      "Ġchart": 3948,
      "ĠWho": 3949,
      "ĠLast": 3950,
      "Ġapple": 3951,
      "Ġplanning": 3952,
      "Ġgenerally": 3953,
      "Ġbehind": 3954,
      "Ġconsidered": 3955,
      "ĠGermany": 3956,
      "erse": 3957,
      "elling": 3958,
      "Ġdecrease": 3959,
      "ai": 3960,
      "ml": 3961,
      "ading": 3962,
      "Ġwhether": 3963,
      "Ġflo": 3964,
      "Ġfuel": 3965,
      "Ġhyd": 3966,
      "Ġenabled": 3967,
      "Ġoriginal": 3968,
      "Ġflexibility": 3969,
      "Ġconflict": 3970,
      "45": 3971,
      "Name": 3972,
      "chen": 3973,
      "Ġrewards": 3974,
      "Ġmeal": 3975,
      "Ġideal": 3976,
      "Ġinfra": 3977,
      "Ġcombination": 3978,
      "Ġswitch": 3979,
      "pected": 3980,
      "Ġchance": 3981,
      "Ġdiverse": 3982,
      "Ġcultures": 3983,
      "Ġappliances": 3984,
      "Ġnumerous": 3985,
      "rics": 3986,
      "Ġlaugh": 3987,
      "ĠSal": 3988,
      "Ġviol": 3989,
      "Ġexploration": 3990,
      "Ġmiles": 3991,
      "ĠTrans": 3992,
      "stitution": 3993,
      "book": 3994,
      "ius": 3995,
      "Ġrecord": 3996,
      "ricult": 3997,
      "Ġbuying": 3998,
      "Ġmagn": 3999
    },
    "merges": [
      [
        "Ġ",
        "a"
      ],
      [
        "Ġ",
        "t"
      ],
      [
        "i",
        "n"
      ],
      [
        "h",
        "e"
      ],
      [
        "č",
        "Ċ"
      ],
      [
        "e",
        "r"
      ],
      [
        "r",
        "e"
      ],
      [
        "s",
        "t"
      ],
      [
        "o",
        "n"
      ],
      [
        "a",
        "n"
      ],
      [
        "a",
        "t"
      ],
      [
        "Ġt",
        "he"
      ],
      [
        "Ġ",
        "c"
      ],
      [
        "e",
        "n"
      ],
      [
        "Ġ",
        "o"
      ],
      [
        "Ġ",
        "s"
      ],
      [
        "Ġa",
        "n"
      ],
      [
        "in",
        "g"
      ],
      [
        "e",
        "s"
      ],
      [
        "Ġ",
        "p"
      ],
      [
        "i",
        "t"
      ],
      [
        "o",
        "r"
      ],
      [
        "Ġ",
        "w"
      ],
      [
        "Ġan",
        "d"
      ],
      [
        "Ġ",
        "f"
      ],
      [
        "a",
        "l"
      ],
      [
        "Ġ",
        "b"
      ],
      [
        "i",
        "s"
      ],
      [
        "Ġt",
        "o"
      ],
      [
        "Ġ",
        "m"
      ],
      [
        "Ġ",
        "in"
      ],
      [
        "o",
        "u"
      ],
      [
        "Ġo",
        "f"
      ],
      [
        "e",
        "d"
      ],
      [
        "Ġ",
        "d"
      ],
      [
        "a",
        "r"
      ],
      [
        "s",
        "i"
      ],
      [
        "l",
        "e"
      ],
      [
        "i",
        "c"
      ],
      [
        "i",
        "on"
      ],
      [
        "an",
        "t"
      ],
      [
        "o",
        "m"
      ],
      [
        "en",
        "t"
      ],
      [
        "s",
        "si"
      ],
      [
        "Ġ",
        "e"
      ],
      [
        "st",
        "ant"
      ],
      [
        "ssi",
        "stant"
      ],
      [
        "A",
        "ssistant"
      ],
      [
        "r",
        "o"
      ],
      [
        "c",
        "t"
      ],
      [
        "Ġ",
        "h"
      ],
      [
        "u",
        "t"
      ],
      [
        "Ġ",
        "l"
      ],
      [
        "v",
        "e"
      ],
      [
        "a",
        "s"
      ],
      [
        "Ġ",
        "re"
      ],
      [
        "Ġ",
        "is"
      ],
      [
        "e",
        "t"
      ],
      [
        "Ġ",
        "T"
      ],
      [
        "s",
        "er"
      ],
      [
        "Ġt",
        "h"
      ],
      [
        "l",
        "l"
      ],
      [
        "Ġ",
        "u"
      ],
      [
        "Ġ",
        "n"
      ],
      [
        "U",
        "ser"
      ],
      [
        "c",
        "e"
      ],
      [
        "i",
        "m"
      ],
      [
        "Ġ",
        "g"
      ],
      [
        "c",
        "h"
      ],
      [
        "r",
        "a"
      ],
      [
        "Ġb",
        "e"
      ],
      [
        "Ġf",
        "or"
      ],
      [
        "Ġ",
        "Ġ"
      ],
      [
        "l",
        "y"
      ],
      [
        "Ġ",
        "st"
      ],
      [
        "at",
        "ion"
      ],
      [
        "o",
        "w"
      ],
      [
        "Ġ",
        "A"
      ],
      [
        "u",
        "r"
      ],
      [
        "Ġ",
        "I"
      ],
      [
        "at",
        "e"
      ],
      [
        "o",
        "l"
      ],
      [
        "i",
        "g"
      ],
      [
        "ĠT",
        "he"
      ],
      [
        "i",
        "d"
      ],
      [
        "Ġp",
        "ro"
      ],
      [
        "s",
        "e"
      ],
      [
        "it",
        "h"
      ],
      [
        "v",
        "er"
      ],
      [
        "o",
        "t"
      ],
      [
        "g",
        "e"
      ],
      [
        "l",
        "d"
      ],
      [
        "i",
        "r"
      ],
      [
        "Ġ",
        "on"
      ],
      [
        "a",
        "m"
      ],
      [
        "Ġ",
        "C"
      ],
      [
        "a",
        "y"
      ],
      [
        "Ġ",
        "y"
      ],
      [
        "Ġ",
        "S"
      ],
      [
        "i",
        "f"
      ],
      [
        "Ġ",
        "he"
      ],
      [
        "p",
        "ut"
      ],
      [
        "Ġw",
        "ith"
      ],
      [
        "Ġth",
        "at"
      ],
      [
        "u",
        "l"
      ],
      [
        "er",
        "s"
      ],
      [
        "Ġs",
        "u"
      ],
      [
        "es",
        "s"
      ],
      [
        "Ġc",
        "on"
      ],
      [
        "r",
        "i"
      ],
      [
        "Ġ",
        "čĊ"
      ],
      [
        "a",
        "k"
      ],
      [
        "Ġa",
        "s"
      ],
      [
        "Ġe",
        "x"
      ],
      [
        "i",
        "l"
      ],
      [
        "Ġ",
        "W"
      ],
      [
        "Ġc",
        "an"
      ],
      [
        "Ġc",
        "om"
      ],
      [
        "Ġm",
        "o"
      ],
      [
        "Ġd",
        "e"
      ],
      [
        "a",
        "d"
      ],
      [
        "Ġ",
        "it"
      ],
      [
        "Ġy",
        "ou"
      ],
      [
        "a",
        "b"
      ],
      [
        "m",
        "ent"
      ],
      [
        "u",
        "re"
      ],
      [
        "Ġa",
        "re"
      ],
      [
        "t",
        "er"
      ],
      [
        "Ġo",
        "r"
      ],
      [
        "a",
        "in"
      ],
      [
        "I",
        "n"
      ],
      [
        "q",
        "u"
      ],
      [
        "p",
        "p"
      ],
      [
        "it",
        "y"
      ],
      [
        "Ġ",
        "en"
      ],
      [
        "e",
        "ct"
      ],
      [
        "In",
        "put"
      ],
      [
        "Ġ",
        "v"
      ],
      [
        "Ġw",
        "h"
      ],
      [
        "i",
        "ve"
      ],
      [
        "o",
        "p"
      ],
      [
        "u",
        "m"
      ],
      [
        "Ġs",
        "h"
      ],
      [
        "or",
        "t"
      ],
      [
        "n",
        "d"
      ],
      [
        "Ġ",
        "1"
      ],
      [
        "he",
        "r"
      ],
      [
        "Ġn",
        "e"
      ],
      [
        "i",
        "es"
      ],
      [
        "e",
        "m"
      ],
      [
        "ou",
        "ld"
      ],
      [
        "i",
        "al"
      ],
      [
        "i",
        "v"
      ],
      [
        "Ġ",
        "D"
      ],
      [
        "t",
        "h"
      ],
      [
        "u",
        "st"
      ],
      [
        "Ġ",
        "H"
      ],
      [
        "Ġ",
        "P"
      ],
      [
        "Ġ",
        "r"
      ],
      [
        "o",
        "d"
      ],
      [
        "p",
        "l"
      ],
      [
        "ig",
        "h"
      ],
      [
        "Ġ",
        "le"
      ],
      [
        "Ġ",
        "im"
      ],
      [
        "Ġu",
        "s"
      ],
      [
        "o",
        "c"
      ],
      [
        "Ġa",
        "l"
      ],
      [
        "a",
        "c"
      ],
      [
        "i",
        "st"
      ],
      [
        "Ġ",
        "E"
      ],
      [
        "Ġc",
        "h"
      ],
      [
        "e",
        "l"
      ],
      [
        "u",
        "s"
      ],
      [
        "Ġ",
        "M"
      ],
      [
        "Ġ",
        "G"
      ],
      [
        "d",
        "u"
      ],
      [
        "n",
        "t"
      ],
      [
        "i",
        "ll"
      ],
      [
        "Ġw",
        "or"
      ],
      [
        "an",
        "d"
      ],
      [
        "in",
        "e"
      ],
      [
        "Ġ",
        "F"
      ],
      [
        "en",
        "ce"
      ],
      [
        "i",
        "z"
      ],
      [
        "r",
        "om"
      ],
      [
        "u",
        "d"
      ],
      [
        "Ġt",
        "e"
      ],
      [
        "Ġs",
        "e"
      ],
      [
        "o",
        "g"
      ],
      [
        "Ġa",
        "b"
      ],
      [
        "Ġb",
        "y"
      ],
      [
        "Ġin",
        "c"
      ],
      [
        "-",
        "-"
      ],
      [
        "Ġim",
        "p"
      ],
      [
        "a",
        "ge"
      ],
      [
        "a",
        "re"
      ],
      [
        "Ġh",
        "a"
      ],
      [
        "igh",
        "t"
      ],
      [
        "u",
        "n"
      ],
      [
        "Ġw",
        "e"
      ],
      [
        "p",
        "t"
      ],
      [
        "ak",
        "e"
      ],
      [
        "Ġ",
        "B"
      ],
      [
        "Ġt",
        "ra"
      ],
      [
        "Ġw",
        "as"
      ],
      [
        "o",
        "re"
      ],
      [
        "ou",
        "t"
      ],
      [
        "Ġp",
        "l"
      ],
      [
        "Ġs",
        "p"
      ],
      [
        "a",
        "g"
      ],
      [
        "a",
        "ct"
      ],
      [
        "o",
        "s"
      ],
      [
        "p",
        "er"
      ],
      [
        "Ġ",
        "k"
      ],
      [
        "ion",
        "s"
      ],
      [
        "ĠĠ",
        "ĠĠ"
      ],
      [
        "c",
        "ess"
      ],
      [
        "al",
        "ly"
      ],
      [
        "f",
        "f"
      ],
      [
        "ĠW",
        "h"
      ],
      [
        "Ġ",
        "R"
      ],
      [
        "en",
        "d"
      ],
      [
        "Ġf",
        "rom"
      ],
      [
        "ab",
        "le"
      ],
      [
        "ic",
        "e"
      ],
      [
        "ou",
        "r"
      ],
      [
        "id",
        "e"
      ],
      [
        "ar",
        "t"
      ],
      [
        "Ġa",
        "d"
      ],
      [
        "al",
        "l"
      ],
      [
        "Ġ",
        "N"
      ],
      [
        "Ġcom",
        "p"
      ],
      [
        "a",
        "st"
      ],
      [
        "k",
        "s"
      ],
      [
        "i",
        "e"
      ],
      [
        "r",
        "ou"
      ],
      [
        "Ġd",
        "at"
      ],
      [
        "a",
        "ch"
      ],
      [
        "Ġthe",
        "ir"
      ],
      [
        "om",
        "e"
      ],
      [
        "re",
        "s"
      ],
      [
        "Ġa",
        "c"
      ],
      [
        "re",
        "at"
      ],
      [
        "ĠI",
        "t"
      ],
      [
        "Ġ",
        "L"
      ],
      [
        "Ġm",
        "e"
      ],
      [
        "Ġa",
        "t"
      ],
      [
        "Ġ",
        "O"
      ],
      [
        "Ġin",
        "t"
      ],
      [
        "c",
        "es"
      ],
      [
        "Ġ",
        "\""
      ],
      [
        "'",
        "s"
      ],
      [
        "Ġha",
        "ve"
      ],
      [
        "Ġc",
        "l"
      ],
      [
        "Ġmo",
        "re"
      ],
      [
        "t",
        "her"
      ],
      [
        "an",
        "g"
      ],
      [
        "ĠWh",
        "at"
      ],
      [
        "ve",
        "l"
      ],
      [
        "it",
        "ion"
      ],
      [
        "ar",
        "d"
      ],
      [
        "Ġcon",
        "t"
      ],
      [
        "Ġa",
        "ll"
      ],
      [
        "or",
        "m"
      ],
      [
        "g",
        "h"
      ],
      [
        "â",
        "Ģ"
      ],
      [
        "ar",
        "k"
      ],
      [
        "ation",
        "s"
      ],
      [
        "in",
        "d"
      ],
      [
        "Ġyou",
        "r"
      ],
      [
        "Ġdat",
        "a"
      ],
      [
        "Ġ",
        "2"
      ],
      [
        "s",
        "o"
      ],
      [
        "Ġh",
        "as"
      ],
      [
        "r",
        "u"
      ],
      [
        "Ġf",
        "e"
      ],
      [
        "f",
        "er"
      ],
      [
        "im",
        "e"
      ],
      [
        "n",
        "ing"
      ],
      [
        "Ġsu",
        "ch"
      ],
      [
        "ĠT",
        "h"
      ],
      [
        "Ġab",
        "out"
      ],
      [
        "e",
        "p"
      ],
      [
        "o",
        "o"
      ],
      [
        "it",
        "e"
      ],
      [
        "Ġa",
        "pp"
      ],
      [
        "ou",
        "s"
      ],
      [
        "am",
        "e"
      ],
      [
        "Ġ",
        "j"
      ],
      [
        "Ġd",
        "o"
      ],
      [
        "an",
        "ce"
      ],
      [
        "Ġhe",
        "l"
      ],
      [
        "i",
        "p"
      ],
      [
        "Ġal",
        "so"
      ],
      [
        "e",
        "st"
      ],
      [
        "Ġre",
        "s"
      ],
      [
        "ust",
        "om"
      ],
      [
        "Ġ",
        "qu"
      ],
      [
        "Ġ",
        "("
      ],
      [
        "Ġhel",
        "p"
      ],
      [
        "Ġus",
        "ed"
      ],
      [
        "Ġp",
        "o"
      ],
      [
        "ul",
        "t"
      ],
      [
        "Ġw",
        "he"
      ],
      [
        "Ġa",
        "r"
      ],
      [
        "Ġ",
        "|"
      ],
      [
        "Ġsh",
        "ould"
      ],
      [
        "on",
        "e"
      ],
      [
        "Ġg",
        "o"
      ],
      [
        "ĠĠ",
        "Ġ"
      ],
      [
        "Ġu",
        "p"
      ],
      [
        "Ġc",
        "ustom"
      ],
      [
        "f",
        "orm"
      ],
      [
        "an",
        "s"
      ],
      [
        "as",
        "e"
      ],
      [
        "u",
        "e"
      ],
      [
        "Ġtra",
        "d"
      ],
      [
        "ou",
        "nt"
      ],
      [
        "Ġp",
        "e"
      ],
      [
        "at",
        "ed"
      ],
      [
        "Ġd",
        "is"
      ],
      [
        "a",
        "p"
      ],
      [
        "Ġo",
        "ut"
      ],
      [
        "Ġf",
        "o"
      ],
      [
        "ic",
        "al"
      ],
      [
        "k",
        "e"
      ],
      [
        "a",
        "ce"
      ],
      [
        "re",
        "e"
      ],
      [
        "b",
        "le"
      ],
      [
        "Ġm",
        "an"
      ],
      [
        "a",
        "v"
      ],
      [
        "ĠI",
        "n"
      ],
      [
        "re",
        "ate"
      ],
      [
        "ic",
        "h"
      ],
      [
        "en",
        "er"
      ],
      [
        "Ġ",
        "U"
      ],
      [
        "y",
        "st"
      ],
      [
        "on",
        "g"
      ],
      [
        "Ġu",
        "n"
      ],
      [
        "ig",
        "n"
      ],
      [
        "Ġc",
        "o"
      ],
      [
        "ac",
        "k"
      ],
      [
        "Ġu",
        "se"
      ],
      [
        "Ġs",
        "o"
      ],
      [
        "Ġo",
        "ther"
      ],
      [
        "Ġne",
        "w"
      ],
      [
        "Ġt",
        "ime"
      ],
      [
        "Ġin",
        "ter"
      ],
      [
        "r",
        "y"
      ],
      [
        "i",
        "le"
      ],
      [
        "e",
        "ll"
      ],
      [
        "Ġb",
        "et"
      ],
      [
        "d",
        "er"
      ],
      [
        "du",
        "ct"
      ],
      [
        "l",
        "es"
      ],
      [
        "Ġpro",
        "v"
      ],
      [
        "re",
        "d"
      ],
      [
        "Ġe",
        "m"
      ],
      [
        "i",
        "ent"
      ],
      [
        "Ġd",
        "if"
      ],
      [
        "Ġe",
        "ff"
      ],
      [
        "Ġp",
        "r"
      ],
      [
        "l",
        "ud"
      ],
      [
        "k",
        "ing"
      ],
      [
        "Ġs",
        "c"
      ],
      [
        "Ġl",
        "i"
      ],
      [
        "e",
        "c"
      ],
      [
        "ĠTh",
        "is"
      ],
      [
        "Ġs",
        "er"
      ],
      [
        "Ġd",
        "es"
      ],
      [
        "o",
        "b"
      ],
      [
        "ri",
        "b"
      ],
      [
        "Ġ",
        "J"
      ],
      [
        "ch",
        "n"
      ],
      [
        "Ġthe",
        "y"
      ],
      [
        "ure",
        "s"
      ],
      [
        "Ġwh",
        "ich"
      ],
      [
        "Ġinc",
        "lud"
      ],
      [
        "w",
        "o"
      ],
      [
        "Ġle",
        "ar"
      ],
      [
        "l",
        "ic"
      ],
      [
        "ol",
        "og"
      ],
      [
        "al",
        "th"
      ],
      [
        "Ġn",
        "ot"
      ],
      [
        "e",
        "ar"
      ],
      [
        "n",
        "e"
      ],
      [
        "w",
        "e"
      ],
      [
        "f",
        "ul"
      ],
      [
        "Ġm",
        "ake"
      ],
      [
        "yst",
        "em"
      ],
      [
        "Ġ",
        "ro"
      ],
      [
        "g",
        "y"
      ],
      [
        "Ġe",
        "v"
      ],
      [
        "o",
        "y"
      ],
      [
        "al",
        "s"
      ],
      [
        "an",
        "ge"
      ],
      [
        "Ġw",
        "ay"
      ],
      [
        "b",
        "er"
      ],
      [
        "Ġimp",
        "ort"
      ],
      [
        "or",
        "y"
      ],
      [
        "Ġre",
        "c"
      ],
      [
        "it",
        "ies"
      ],
      [
        "Ġ",
        "="
      ],
      [
        "Ġo",
        "ver"
      ],
      [
        "Ġcom",
        "m"
      ],
      [
        "Ġa",
        "ct"
      ],
      [
        "Ġp",
        "er"
      ],
      [
        "if",
        "ic"
      ],
      [
        "op",
        "le"
      ],
      [
        "Ġde",
        "c"
      ],
      [
        "Ġw",
        "ill"
      ],
      [
        "ak",
        "ing"
      ],
      [
        "Ġon",
        "e"
      ],
      [
        "--",
        "--"
      ],
      [
        "si",
        "on"
      ],
      [
        "o",
        "se"
      ],
      [
        "y",
        "p"
      ],
      [
        "e",
        "f"
      ],
      [
        "ar",
        "y"
      ],
      [
        "il",
        "ity"
      ],
      [
        "Ġ",
        "-"
      ],
      [
        "ark",
        "et"
      ],
      [
        "a",
        "il"
      ],
      [
        "Ġ",
        "3"
      ],
      [
        "Ġte",
        "chn"
      ],
      [
        "n",
        "ow"
      ],
      [
        "ow",
        "er"
      ],
      [
        "le",
        "ct"
      ],
      [
        "d",
        "s"
      ],
      [
        "Ġit",
        "s"
      ],
      [
        "Ġin",
        "d"
      ],
      [
        "g",
        "et"
      ],
      [
        "Ġt",
        "wo"
      ],
      [
        "Ġst",
        "r"
      ],
      [
        "p",
        "le"
      ],
      [
        "pl",
        "ain"
      ],
      [
        "m",
        "s"
      ],
      [
        "ment",
        "s"
      ],
      [
        "or",
        "s"
      ],
      [
        "in",
        "t"
      ],
      [
        "Ġdif",
        "fer"
      ],
      [
        "0",
        "0"
      ],
      [
        "Ġcustom",
        "er"
      ],
      [
        "at",
        "er"
      ],
      [
        "Ġs",
        "ystem"
      ],
      [
        "Ġpro",
        "duct"
      ],
      [
        "ĠS",
        "t"
      ],
      [
        "res",
        "s"
      ],
      [
        "Ġhe",
        "alth"
      ],
      [
        "Ġpe",
        "ople"
      ],
      [
        "Ġre",
        "du"
      ],
      [
        "as",
        "ed"
      ],
      [
        "Ġpro",
        "cess"
      ],
      [
        "i",
        "a"
      ],
      [
        "ener",
        "ate"
      ],
      [
        "Ġth",
        "is"
      ],
      [
        "Ġwor",
        "k"
      ],
      [
        "j",
        "ect"
      ],
      [
        "ĠD",
        "es"
      ],
      [
        "i",
        "ence"
      ],
      [
        "d",
        "ition"
      ],
      [
        "vel",
        "op"
      ],
      [
        "Ġp",
        "h"
      ],
      [
        "Ġre",
        "l"
      ],
      [
        "ent",
        "ial"
      ],
      [
        "Ġinc",
        "re"
      ],
      [
        "Ġthe",
        "m"
      ],
      [
        "ĠA",
        "d"
      ],
      [
        "ĠH",
        "e"
      ],
      [
        "Ġm",
        "arket"
      ],
      [
        "ĠH",
        "ow"
      ],
      [
        "ers",
        "on"
      ],
      [
        "ĠE",
        "x"
      ],
      [
        "Ġwhe",
        "n"
      ],
      [
        "Ġli",
        "ke"
      ],
      [
        "Ġw",
        "ould"
      ],
      [
        "Ġc",
        "ould"
      ],
      [
        "Ġh",
        "ad"
      ],
      [
        "i",
        "re"
      ],
      [
        "Ġint",
        "o"
      ],
      [
        "at",
        "ing"
      ],
      [
        "Ġn",
        "um"
      ],
      [
        "at",
        "es"
      ],
      [
        "er",
        "gy"
      ],
      [
        "iz",
        "e"
      ],
      [
        "Ġc",
        "reat"
      ],
      [
        "Ġser",
        "v"
      ],
      [
        "Ġne",
        "ed"
      ],
      [
        "ent",
        "s"
      ],
      [
        "Ġt",
        "r"
      ],
      [
        "Ġac",
        "c"
      ],
      [
        "Ġb",
        "ut"
      ],
      [
        "rou",
        "gh"
      ],
      [
        "c",
        "rib"
      ],
      [
        "Ġa",
        "m"
      ],
      [
        "ver",
        "y"
      ],
      [
        "ru",
        "ct"
      ],
      [
        "Ġimport",
        "ant"
      ],
      [
        "Ġen",
        "ergy"
      ],
      [
        "t",
        "ing"
      ],
      [
        "Ġ",
        "5"
      ],
      [
        "w",
        "or"
      ],
      [
        "an",
        "c"
      ],
      [
        "Ġh",
        "is"
      ],
      [
        "ic",
        "k"
      ],
      [
        "ut",
        "ion"
      ],
      [
        "ou",
        "nd"
      ],
      [
        "Ġwor",
        "ld"
      ],
      [
        "ic",
        "es"
      ],
      [
        "Ġb",
        "l"
      ],
      [
        "oo",
        "k"
      ],
      [
        "Ġc",
        "ol"
      ],
      [
        "ro",
        "w"
      ],
      [
        "Ġex",
        "per"
      ],
      [
        "ar",
        "i"
      ],
      [
        "Ġp",
        "re"
      ],
      [
        "as",
        "s"
      ],
      [
        "if",
        "e"
      ],
      [
        "Ġt",
        "yp"
      ],
      [
        "Ġs",
        "m"
      ],
      [
        "v",
        "ing"
      ],
      [
        "Ġh",
        "ow"
      ],
      [
        "Ġl",
        "ist"
      ],
      [
        "it",
        "s"
      ],
      [
        "olog",
        "y"
      ],
      [
        "x",
        "t"
      ],
      [
        "p",
        "h"
      ],
      [
        "we",
        "en"
      ],
      [
        "Ġhe",
        "r"
      ],
      [
        "Ġex",
        "p"
      ],
      [
        "nd",
        "er"
      ],
      [
        "i",
        "ld"
      ],
      [
        "Ġbet",
        "ween"
      ],
      [
        "in",
        "ess"
      ],
      [
        "u",
        "al"
      ],
      [
        "is",
        "e"
      ],
      [
        "Ġs",
        "k"
      ],
      [
        "Ġd",
        "ay"
      ],
      [
        "f",
        "t"
      ],
      [
        "Ġs",
        "et"
      ],
      [
        "Ġlear",
        "ning"
      ],
      [
        "ĠA",
        "I"
      ],
      [
        "Ġwh",
        "o"
      ],
      [
        "ic",
        "s"
      ],
      [
        "Ġs",
        "ent"
      ],
      [
        "rou",
        "nd"
      ],
      [
        "is",
        "h"
      ],
      [
        "Ġus",
        "ing"
      ],
      [
        "c",
        "on"
      ],
      [
        "Ġk",
        "now"
      ],
      [
        "Ġan",
        "y"
      ],
      [
        "Ġf",
        "l"
      ],
      [
        "a",
        "u"
      ],
      [
        "Ġs",
        "ol"
      ],
      [
        "ĠG",
        "enerate"
      ],
      [
        "ur",
        "al"
      ],
      [
        "ra",
        "m"
      ],
      [
        "crib",
        "e"
      ],
      [
        "Ġth",
        "an"
      ],
      [
        "Ġc",
        "ar"
      ],
      [
        "ur",
        "n"
      ],
      [
        "Ġo",
        "ur"
      ],
      [
        "ot",
        "h"
      ],
      [
        "T",
        "he"
      ],
      [
        "ra",
        "ct"
      ],
      [
        "Ġb",
        "u"
      ],
      [
        "Ġmo",
        "d"
      ],
      [
        "ul",
        "ar"
      ],
      [
        "l",
        "ine"
      ],
      [
        "Ġar",
        "t"
      ],
      [
        "ĠC",
        "reate"
      ],
      [
        "Ġp",
        "art"
      ],
      [
        "Ġde",
        "velop"
      ],
      [
        "Ġu",
        "ser"
      ],
      [
        "Ġex",
        "am"
      ],
      [
        "g",
        "an"
      ],
      [
        "Ġinclud",
        "e"
      ],
      [
        "Ġimp",
        "ro"
      ],
      [
        "ing",
        "s"
      ],
      [
        "t",
        "en"
      ],
      [
        "Ġwh",
        "ile"
      ],
      [
        "Ġmo",
        "st"
      ],
      [
        "ow",
        "ing"
      ],
      [
        "Ġu",
        "nder"
      ],
      [
        "Ġv",
        "al"
      ],
      [
        "c",
        "y"
      ],
      [
        "Ġb",
        "us"
      ],
      [
        "Ġp",
        "erson"
      ],
      [
        "Ġth",
        "rough"
      ],
      [
        "ang",
        "u"
      ],
      [
        "Ġbe",
        "c"
      ],
      [
        "Ġs",
        "ome"
      ],
      [
        "u",
        "b"
      ],
      [
        "Ġm",
        "ed"
      ],
      [
        "Ġad",
        "v"
      ],
      [
        "v",
        "ol"
      ],
      [
        "ir",
        "on"
      ],
      [
        "si",
        "c"
      ],
      [
        "Ġf",
        "in"
      ],
      [
        "g",
        "or"
      ],
      [
        "at",
        "ive"
      ],
      [
        "Ġk",
        "e"
      ],
      [
        "re",
        "n"
      ],
      [
        "Ġcom",
        "put"
      ],
      [
        "Ġst",
        "ud"
      ],
      [
        "Ġpro",
        "g"
      ],
      [
        "Ġt",
        "as"
      ],
      [
        "m",
        "er"
      ],
      [
        "ic",
        "t"
      ],
      [
        "Ġwe",
        "b"
      ],
      [
        "Ġredu",
        "ce"
      ],
      [
        "Ġb",
        "r"
      ],
      [
        "al",
        "y"
      ],
      [
        "Ġd",
        "et"
      ],
      [
        "v",
        "es"
      ],
      [
        "Ġp",
        "ot"
      ],
      [
        "ĠA",
        "n"
      ],
      [
        "Ġ",
        "ra"
      ],
      [
        "u",
        "c"
      ],
      [
        "Ġmod",
        "el"
      ],
      [
        "Ġl",
        "ar"
      ],
      [
        "v",
        "iron"
      ],
      [
        "âĢ",
        "Ļ"
      ],
      [
        "Ġeff",
        "ect"
      ],
      [
        "i",
        "ous"
      ],
      [
        "Ġp",
        "ur"
      ],
      [
        "ow",
        "s"
      ],
      [
        "a",
        "x"
      ],
      [
        "Ġl",
        "angu"
      ],
      [
        "Ġbe",
        "en"
      ],
      [
        "ri",
        "end"
      ],
      [
        "Ġl",
        "ife"
      ],
      [
        "w",
        "ay"
      ],
      [
        "Ġ",
        "V"
      ],
      [
        "pp",
        "ort"
      ],
      [
        "Ġbus",
        "iness"
      ],
      [
        "Ġp",
        "at"
      ],
      [
        "Ġ",
        "if"
      ],
      [
        "Ġfo",
        "ll"
      ],
      [
        "v",
        "ed"
      ],
      [
        "Ġen",
        "viron"
      ],
      [
        "Ġin",
        "form"
      ],
      [
        "Ġ",
        "4"
      ],
      [
        "Ġtr",
        "ans"
      ],
      [
        "w",
        "are"
      ],
      [
        "dition",
        "ally"
      ],
      [
        "Ġd",
        "i"
      ],
      [
        "Ġre",
        "g"
      ],
      [
        "t",
        "ain"
      ],
      [
        "ver",
        "s"
      ],
      [
        "Ġt",
        "ake"
      ],
      [
        "Ġh",
        "um"
      ],
      [
        "if",
        "y"
      ],
      [
        "ĠDes",
        "cribe"
      ],
      [
        "ĠAd",
        "ditionally"
      ],
      [
        "Ġa",
        "ut"
      ],
      [
        "et",
        "h"
      ],
      [
        "Ġth",
        "ree"
      ],
      [
        "t",
        "s"
      ],
      [
        "Ġr",
        "is"
      ],
      [
        "our",
        "ces"
      ],
      [
        "Ġle",
        "ad"
      ],
      [
        "Ġs",
        "he"
      ],
      [
        "ag",
        "es"
      ],
      [
        "Ġprov",
        "ide"
      ],
      [
        "Ġdiffer",
        "ent"
      ],
      [
        "at",
        "ure"
      ],
      [
        "he",
        "s"
      ],
      [
        "Ġprov",
        "id"
      ],
      [
        "Ġe",
        "ach"
      ],
      [
        "ĠEx",
        "plain"
      ],
      [
        "ter",
        "n"
      ],
      [
        "Ġtrad",
        "ing"
      ],
      [
        "er",
        "e"
      ],
      [
        "Ġs",
        "a"
      ],
      [
        "st",
        "and"
      ],
      [
        "en",
        "s"
      ],
      [
        "im",
        "ate"
      ],
      [
        "gor",
        "ith"
      ],
      [
        "Ġs",
        "oc"
      ],
      [
        "Ġl",
        "o"
      ],
      [
        "en",
        "ces"
      ],
      [
        "Ġenviron",
        "ment"
      ],
      [
        "Ġg",
        "l"
      ],
      [
        "Ġp",
        "ower"
      ],
      [
        "Ġ",
        "Y"
      ],
      [
        "Ġre",
        "t"
      ],
      [
        "ge",
        "st"
      ],
      [
        "Ġres",
        "p"
      ],
      [
        "et",
        "y"
      ],
      [
        "r",
        "ite"
      ],
      [
        "Ġtechn",
        "ology"
      ],
      [
        "ar",
        "m"
      ],
      [
        "Ġpl",
        "an"
      ],
      [
        "u",
        "p"
      ],
      [
        "Ġm",
        "y"
      ],
      [
        "Ġc",
        "reate"
      ],
      [
        "r",
        "it"
      ],
      [
        "Ġv",
        "ari"
      ],
      [
        "it",
        "ed"
      ],
      [
        "ar",
        "ch"
      ],
      [
        "ĠC",
        "om"
      ],
      [
        "Ġwh",
        "at"
      ],
      [
        "Ġdis",
        "c"
      ],
      [
        "Ġn",
        "o"
      ],
      [
        "oc",
        "k"
      ],
      [
        "ĠC",
        "h"
      ],
      [
        "c",
        "k"
      ],
      [
        "on",
        "s"
      ],
      [
        "Ġo",
        "b"
      ],
      [
        "Ġm",
        "ain"
      ],
      [
        "iz",
        "ed"
      ],
      [
        "Ġsp",
        "ec"
      ],
      [
        "Ġ",
        "âĢ"
      ],
      [
        "an",
        "y"
      ],
      [
        "l",
        "ed"
      ],
      [
        "ĠP",
        "ro"
      ],
      [
        "iv",
        "es"
      ],
      [
        "Ġc",
        "ur"
      ],
      [
        "Ġlangu",
        "age"
      ],
      [
        "Ġwe",
        "ll"
      ],
      [
        "n",
        "ess"
      ],
      [
        "ou",
        "gh"
      ],
      [
        "Ġthe",
        "re"
      ],
      [
        "Ġse",
        "c"
      ],
      [
        "er",
        "m"
      ],
      [
        "Ġre",
        "p"
      ],
      [
        "Ġcomp",
        "le"
      ],
      [
        "f",
        "ore"
      ],
      [
        "Ġal",
        "gorith"
      ],
      [
        "Ġa",
        "g"
      ],
      [
        "Ġf",
        "ind"
      ],
      [
        "Ġpot",
        "ential"
      ],
      [
        "g",
        "in"
      ],
      [
        "w",
        "n"
      ],
      [
        "st",
        "ruct"
      ],
      [
        "ir",
        "st"
      ],
      [
        "Ġre",
        "m"
      ],
      [
        "Ġb",
        "en"
      ],
      [
        "Ġcomm",
        "un"
      ],
      [
        "Ġpro",
        "t"
      ],
      [
        "Ġw",
        "ater"
      ],
      [
        "Ġch",
        "ar"
      ],
      [
        "ĠĠĠĠ",
        "ĠĠĠ"
      ],
      [
        "i",
        "ly"
      ],
      [
        "Ġexam",
        "ple"
      ],
      [
        "Ġunder",
        "stand"
      ],
      [
        "Ġo",
        "pt"
      ],
      [
        "Ġc",
        "a"
      ],
      [
        "Ġf",
        "u"
      ],
      [
        "Ġman",
        "y"
      ],
      [
        "Ġan",
        "aly"
      ],
      [
        "Ġsent",
        "ence"
      ],
      [
        "Ġg",
        "reat"
      ],
      [
        "v",
        "ie"
      ],
      [
        "Ġact",
        "iv"
      ],
      [
        "ow",
        "n"
      ],
      [
        "Ġm",
        "u"
      ],
      [
        "Ġm",
        "in"
      ],
      [
        "Ġor",
        "der"
      ],
      [
        "h",
        "ip"
      ],
      [
        "Ġco",
        "st"
      ],
      [
        "Ġac",
        "cess"
      ],
      [
        "r",
        "ic"
      ],
      [
        "Ġen",
        "g"
      ],
      [
        "ol",
        "d"
      ],
      [
        "Ġ",
        "K"
      ],
      [
        "iv",
        "id"
      ],
      [
        "u",
        "es"
      ],
      [
        "ach",
        "ine"
      ],
      [
        "Ġinform",
        "ation"
      ],
      [
        "Ġc",
        "he"
      ],
      [
        "v",
        "en"
      ],
      [
        "Ġp",
        "os"
      ],
      [
        "ĠN",
        "ame"
      ],
      [
        "Ġnum",
        "ber"
      ],
      [
        "ur",
        "ing"
      ],
      [
        "Ġl",
        "ong"
      ],
      [
        "ad",
        "e"
      ],
      [
        "Ġs",
        "ur"
      ],
      [
        "Ġy",
        "ear"
      ],
      [
        "id",
        "ent"
      ],
      [
        "ĠU",
        "n"
      ],
      [
        "al",
        "ity"
      ],
      [
        "Ġst",
        "ore"
      ],
      [
        "Ġc",
        "ount"
      ],
      [
        "Ġof",
        "f"
      ],
      [
        "ic",
        "ation"
      ],
      [
        "in",
        "es"
      ],
      [
        "Ġpl",
        "ay"
      ],
      [
        "Ġben",
        "ef"
      ],
      [
        "Ġv",
        "is"
      ],
      [
        "Ġfo",
        "od"
      ],
      [
        "Ġtas",
        "ks"
      ],
      [
        "Ġf",
        "riend"
      ],
      [
        "ro",
        "p"
      ],
      [
        "Ġh",
        "igh"
      ],
      [
        "it",
        "al"
      ],
      [
        "Ġre",
        "qu"
      ],
      [
        "p",
        "ose"
      ],
      [
        "ĠW",
        "rite"
      ],
      [
        "Ġsu",
        "c"
      ],
      [
        "w",
        "ard"
      ],
      [
        "as",
        "es"
      ],
      [
        "ĠC",
        "on"
      ],
      [
        "a",
        "ssi"
      ],
      [
        "Ġexper",
        "ience"
      ],
      [
        "Ġl",
        "ight"
      ],
      [
        "he",
        "d"
      ],
      [
        "Ġ",
        "<"
      ],
      [
        "l",
        "i"
      ],
      [
        "Ġ1",
        "0"
      ],
      [
        "Ġor",
        "gan"
      ],
      [
        "Ġm",
        "ay"
      ],
      [
        "Ġe",
        "qu"
      ],
      [
        "Ġp",
        "op"
      ],
      [
        "it",
        "ive"
      ],
      [
        "Ġdec",
        "is"
      ],
      [
        "Ġt",
        "re"
      ],
      [
        "Ġeff",
        "ic"
      ],
      [
        "at",
        "ures"
      ],
      [
        "con",
        "om"
      ],
      [
        "Ġdes",
        "ign"
      ],
      [
        "Ġof",
        "ten"
      ],
      [
        "Ġbet",
        "ter"
      ],
      [
        "Ġ",
        "ed"
      ],
      [
        "re",
        "ad"
      ],
      [
        "or",
        "d"
      ],
      [
        "Ġex",
        "pl"
      ],
      [
        "ĠS",
        "he"
      ],
      [
        "Ġ",
        "ve"
      ],
      [
        "Ġwhe",
        "re"
      ],
      [
        "t",
        "e"
      ],
      [
        "Ġdo",
        "es"
      ],
      [
        "ell",
        "ig"
      ],
      [
        "au",
        "se"
      ],
      [
        "Ġpr",
        "ice"
      ],
      [
        "on",
        "d"
      ],
      [
        "Ġres",
        "ult"
      ],
      [
        "i",
        "b"
      ],
      [
        "_",
        "_"
      ],
      [
        "o",
        "od"
      ],
      [
        "ĠR",
        "e"
      ],
      [
        "Ġf",
        "am"
      ],
      [
        "at",
        "ural"
      ],
      [
        "Ġat",
        "t"
      ],
      [
        "Ġfor",
        "m"
      ],
      [
        "Ġsm",
        "all"
      ],
      [
        "a",
        "si"
      ],
      [
        "Ġpro",
        "ble"
      ],
      [
        "et",
        "wor"
      ],
      [
        "Ġg",
        "et"
      ],
      [
        "Ġsu",
        "n"
      ],
      [
        "in",
        "k"
      ],
      [
        "Ġlar",
        "ge"
      ],
      [
        "ve",
        "st"
      ],
      [
        "Ġimpro",
        "ve"
      ],
      [
        "i",
        "qu"
      ],
      [
        "Ġb",
        "ack"
      ],
      [
        "Ġw",
        "ere"
      ],
      [
        "ab",
        "les"
      ],
      [
        "n",
        "ect"
      ],
      [
        "Ġa",
        "round"
      ],
      [
        "Ġe",
        "conom"
      ],
      [
        "Ġso",
        "ft"
      ],
      [
        "Ġimp",
        "act"
      ],
      [
        "Ġgo",
        "od"
      ],
      [
        "Ġl",
        "a"
      ],
      [
        "ri",
        "es"
      ],
      [
        "Ġe",
        "very"
      ],
      [
        "res",
        "ent"
      ],
      [
        "Ġb",
        "oth"
      ],
      [
        "ic",
        "ally"
      ],
      [
        "o",
        "h"
      ],
      [
        "Ġch",
        "ange"
      ],
      [
        "Ġprog",
        "ram"
      ],
      [
        "ar",
        "s"
      ],
      [
        "Ġad",
        "d"
      ],
      [
        "Ġst",
        "ory"
      ],
      [
        "Ġserv",
        "ice"
      ],
      [
        "ation",
        "al"
      ],
      [
        "Ġo",
        "p"
      ],
      [
        "Ġf",
        "ive"
      ],
      [
        "Ġsuc",
        "cess"
      ],
      [
        "Ġin",
        "vol"
      ],
      [
        "Ġthe",
        "n"
      ],
      [
        "anc",
        "ial"
      ],
      [
        "*",
        "*"
      ],
      [
        "oc",
        "us"
      ],
      [
        "en",
        "g"
      ],
      [
        "Ġweb",
        "s"
      ],
      [
        "Ġret",
        "urn"
      ],
      [
        "c",
        "om"
      ],
      [
        "si",
        "d"
      ],
      [
        "Ġs",
        "im"
      ],
      [
        "he",
        "n"
      ],
      [
        "Ġqu",
        "ick"
      ],
      [
        "Ġon",
        "line"
      ],
      [
        "Ġ",
        "ent"
      ],
      [
        "Ġsp",
        "e"
      ],
      [
        "Ġm",
        "aking"
      ],
      [
        "Ġc",
        "le"
      ],
      [
        "Ġe",
        "le"
      ],
      [
        "Ġfe",
        "el"
      ],
      [
        "ĠW",
        "e"
      ],
      [
        "Ġcon",
        "si"
      ],
      [
        "ob",
        "al"
      ],
      [
        "Ġf",
        "irst"
      ],
      [
        "Ġl",
        "oc"
      ],
      [
        "Ġsoc",
        "ial"
      ],
      [
        "re",
        "am"
      ],
      [
        "Ġto",
        "p"
      ],
      [
        "pt",
        "ion"
      ],
      [
        "pl",
        "oy"
      ],
      [
        "ific",
        "ial"
      ],
      [
        "Ġ",
        "ident"
      ],
      [
        "Ġas",
        "s"
      ],
      [
        "Ġapp",
        "lic"
      ],
      [
        "ĠThe",
        "y"
      ],
      [
        "ĠO",
        "n"
      ],
      [
        "ellig",
        "ence"
      ],
      [
        "ak",
        "es"
      ],
      [
        "u",
        "g"
      ],
      [
        "Ġchar",
        "act"
      ],
      [
        "Ġbe",
        "fore"
      ],
      [
        "at",
        "her"
      ],
      [
        "Ġbe",
        "ing"
      ],
      [
        "Ġp",
        "ol"
      ],
      [
        "ant",
        "s"
      ],
      [
        "se",
        "l"
      ],
      [
        "Ġfin",
        "ancial"
      ],
      [
        "ct",
        "ion"
      ],
      [
        "Ġ",
        "ide"
      ],
      [
        "Ġa",
        "ir"
      ],
      [
        "Ġbe",
        "st"
      ],
      [
        "Ġab",
        "le"
      ],
      [
        "Ġle",
        "vel"
      ],
      [
        "l",
        "ing"
      ],
      [
        "Ġch",
        "ang"
      ],
      [
        "Ġt",
        "em"
      ],
      [
        "'",
        "t"
      ],
      [
        "Ġde",
        "f"
      ],
      [
        "iz",
        "ation"
      ],
      [
        "Ġ2",
        "0"
      ],
      [
        "Ġ",
        "#"
      ],
      [
        "Ġcustom",
        "ers"
      ],
      [
        "Ġs",
        "ign"
      ],
      [
        "Ġn",
        "etwor"
      ],
      [
        "Ġin",
        "f"
      ],
      [
        "v",
        "ent"
      ],
      [
        "Ġf",
        "un"
      ],
      [
        "ill",
        "s"
      ],
      [
        "Ġg",
        "row"
      ],
      [
        "Ġcomput",
        "er"
      ],
      [
        "Ġtrad",
        "ers"
      ],
      [
        "Ġper",
        "form"
      ],
      [
        "Ġf",
        "ocus"
      ],
      [
        "Ġst",
        "art"
      ],
      [
        "Ġm",
        "on"
      ],
      [
        "d",
        "ay"
      ],
      [
        "Ġpro",
        "f"
      ],
      [
        "he",
        "re"
      ],
      [
        "c",
        "ed"
      ],
      [
        "a",
        "ut"
      ],
      [
        "Ġfoll",
        "owing"
      ],
      [
        "Ġhum",
        "an"
      ],
      [
        "f",
        "ter"
      ],
      [
        "Ġc",
        "or"
      ],
      [
        "et",
        "s"
      ],
      [
        "ab",
        "ility"
      ],
      [
        "z",
        "e"
      ],
      [
        "Ġf",
        "ut"
      ],
      [
        "Ġwor",
        "ds"
      ],
      [
        "Ġsu",
        "m"
      ],
      [
        "Ġj",
        "ob"
      ],
      [
        "Ġo",
        "wn"
      ],
      [
        "Ġ",
        "["
      ],
      [
        "od",
        "e"
      ],
      [
        "Ġ",
        "'"
      ],
      [
        "Ġn",
        "atural"
      ],
      [
        "Ġb",
        "re"
      ],
      [
        "as",
        "ing"
      ],
      [
        "s",
        "s"
      ],
      [
        "\"",
        "."
      ],
      [
        "Ġh",
        "and"
      ],
      [
        "Ġen",
        "s"
      ],
      [
        "oh",
        "n"
      ],
      [
        "Ġs",
        "al"
      ],
      [
        "Ġstr",
        "ate"
      ],
      [
        "Ġm",
        "achine"
      ],
      [
        "o",
        "st"
      ],
      [
        "Ġe",
        "lect"
      ],
      [
        "Ġcon",
        "nect"
      ],
      [
        "Ġd",
        "ist"
      ],
      [
        "Ġc",
        "ap"
      ],
      [
        "Ġg",
        "ra"
      ],
      [
        "Ġqu",
        "est"
      ],
      [
        "u",
        "ally"
      ],
      [
        "ĠE",
        "n"
      ],
      [
        "Ġ",
        "8"
      ],
      [
        "y",
        "sic"
      ],
      [
        "e",
        "x"
      ],
      [
        "c",
        "ing"
      ],
      [
        "Ġm",
        "ade"
      ],
      [
        "in",
        "ed"
      ],
      [
        "Ġcomp",
        "any"
      ],
      [
        "Ġh",
        "ome"
      ],
      [
        "l",
        "u"
      ],
      [
        "Ġte",
        "xt"
      ],
      [
        "Ġit",
        "em"
      ],
      [
        "Ġr",
        "ight"
      ],
      [
        "Ġan",
        "im"
      ],
      [
        "Ġlear",
        "n"
      ],
      [
        "en",
        "se"
      ],
      [
        "Ġin",
        "vest"
      ],
      [
        "Ġ",
        "+"
      ],
      [
        "Ġsu",
        "b"
      ],
      [
        "Ġris",
        "k"
      ],
      [
        "p",
        "o"
      ],
      [
        "ce",
        "pt"
      ],
      [
        "ub",
        "lic"
      ],
      [
        "Ġn",
        "ight"
      ],
      [
        "ou",
        "ra"
      ],
      [
        "Ġd",
        "own"
      ],
      [
        "Ġsoft",
        "ware"
      ],
      [
        "Ġserv",
        "ices"
      ],
      [
        "Ġwebs",
        "ite"
      ],
      [
        "Ġp",
        "red"
      ],
      [
        "Ġen",
        "d"
      ],
      [
        "Ġev",
        "en"
      ],
      [
        "Ġex",
        "plain"
      ],
      [
        "b",
        "ers"
      ],
      [
        "Ġex",
        "t"
      ],
      [
        "Ġincre",
        "ase"
      ],
      [
        "Ġf",
        "ound"
      ],
      [
        "Ġbe",
        "gin"
      ],
      [
        "Ġsh",
        "are"
      ],
      [
        "Ġ",
        "6"
      ],
      [
        "er",
        "tain"
      ],
      [
        "ĠN",
        "e"
      ],
      [
        "Ġf",
        "ore"
      ],
      [
        "Ġcon",
        "s"
      ],
      [
        "Ġtyp",
        "e"
      ],
      [
        "Ġte",
        "am"
      ],
      [
        "as",
        "h"
      ],
      [
        "en",
        "cy"
      ],
      [
        "Ġde",
        "v"
      ],
      [
        "in",
        "ing"
      ],
      [
        "Ġm",
        "at"
      ],
      [
        "t",
        "y"
      ],
      [
        "ou",
        "se"
      ],
      [
        "Ġind",
        "ivid"
      ],
      [
        "Ġgl",
        "obal"
      ],
      [
        "ĠD",
        "e"
      ],
      [
        "Ġsh",
        "ort"
      ],
      [
        "Ġme",
        "as"
      ],
      [
        "Ġval",
        "ue"
      ],
      [
        "Ġquick",
        "ly"
      ],
      [
        "iv",
        "ing"
      ],
      [
        "b",
        "ot"
      ],
      [
        "re",
        "nt"
      ],
      [
        "Ġed",
        "uc"
      ],
      [
        "re",
        "en"
      ],
      [
        "od",
        "y"
      ],
      [
        "Ġph",
        "ysic"
      ],
      [
        "Ġaut",
        "om"
      ],
      [
        "Ġfe",
        "atures"
      ],
      [
        "Ġ",
        "0"
      ],
      [
        "Ġcont",
        "ent"
      ],
      [
        "Ġs",
        "l"
      ],
      [
        "o",
        "ver"
      ],
      [
        "at",
        "s"
      ],
      [
        "Ġa",
        "v"
      ],
      [
        "Ġc",
        "r"
      ],
      [
        "is",
        "m"
      ],
      [
        "ie",
        "ld"
      ],
      [
        "iv",
        "en"
      ],
      [
        "ĠF",
        "in"
      ],
      [
        "Ġst",
        "ep"
      ],
      [
        "Ġprot",
        "ect"
      ],
      [
        "Ġ",
        "ess"
      ],
      [
        "Ġen",
        "c"
      ],
      [
        "Ġpo",
        "int"
      ],
      [
        "re",
        "ssi"
      ],
      [
        "Ġalgorith",
        "m"
      ],
      [
        "Ġde",
        "p"
      ],
      [
        "ic",
        "le"
      ],
      [
        "Ġbe",
        "l"
      ],
      [
        "Ġst",
        "ay"
      ],
      [
        "Ġpro",
        "ject"
      ],
      [
        "a",
        "ir"
      ],
      [
        "Ġre",
        "ad"
      ],
      [
        "Ġsu",
        "pport"
      ],
      [
        "Ġf",
        "act"
      ],
      [
        "og",
        "n"
      ],
      [
        "is",
        "sion"
      ],
      [
        "Ġob",
        "ject"
      ],
      [
        "Ġres",
        "ources"
      ],
      [
        "Ġpat",
        "tern"
      ],
      [
        "g",
        "er"
      ],
      [
        "Ġre",
        "st"
      ],
      [
        "Ġto",
        "get"
      ],
      [
        "Ġtoget",
        "her"
      ],
      [
        "ĠA",
        "r"
      ],
      [
        "Ġactiv",
        "ities"
      ],
      [
        "r",
        "on"
      ],
      [
        "ĠC",
        "an"
      ],
      [
        "Ġ1",
        "9"
      ],
      [
        "n",
        "er"
      ],
      [
        "Ġc",
        "al"
      ],
      [
        "Ġcl",
        "imate"
      ],
      [
        "----",
        "----"
      ],
      [
        "Ġop",
        "en"
      ],
      [
        "Ġu",
        "nt"
      ],
      [
        "a",
        "j"
      ],
      [
        "Ġc",
        "are"
      ],
      [
        "c",
        "ul"
      ],
      [
        "w",
        "s"
      ],
      [
        "Ġpur",
        "pose"
      ],
      [
        "Ġ",
        "$"
      ],
      [
        "p",
        "ort"
      ],
      [
        "Ġam",
        "ount"
      ],
      [
        "Ġsu",
        "re"
      ],
      [
        "ĠJ",
        "ohn"
      ],
      [
        "Ġbenef",
        "its"
      ],
      [
        "Ġm",
        "ust"
      ],
      [
        "Ġtem",
        "per"
      ],
      [
        "Ġh",
        "ig"
      ],
      [
        "Ġte",
        "st"
      ],
      [
        "Ġfam",
        "ily"
      ],
      [
        "ver",
        "age"
      ],
      [
        "Ġke",
        "y"
      ],
      [
        "i",
        "x"
      ],
      [
        "ro",
        "ss"
      ],
      [
        "g",
        "g"
      ],
      [
        "c",
        "c"
      ],
      [
        "Ġpo",
        "ssi"
      ],
      [
        "Ġuser",
        "s"
      ],
      [
        "way",
        "s"
      ],
      [
        "Ġinter",
        "est"
      ],
      [
        "Ġsystem",
        "s"
      ],
      [
        "Ġeffic",
        "ient"
      ],
      [
        "Ġis",
        "s"
      ],
      [
        "Ġg",
        "ener"
      ],
      [
        "ur",
        "ther"
      ],
      [
        "Ġfut",
        "ure"
      ],
      [
        "Ġway",
        "s"
      ],
      [
        "Ġp",
        "rom"
      ],
      [
        "Ġst",
        "ate"
      ],
      [
        "Ġbu",
        "ild"
      ],
      [
        "Ġyear",
        "s"
      ],
      [
        "Ġme",
        "an"
      ],
      [
        "Ġst",
        "ruct"
      ],
      [
        "i",
        "o"
      ],
      [
        "Ġof",
        "fer"
      ],
      [
        "Ġp",
        "ublic"
      ],
      [
        "Ġm",
        "et"
      ],
      [
        "Ġm",
        "em"
      ],
      [
        "s",
        "p"
      ],
      [
        "Ġw",
        "arm"
      ],
      [
        "m",
        "ing"
      ],
      [
        "ur",
        "ity"
      ],
      [
        "ag",
        "ing"
      ],
      [
        "ot",
        "e"
      ],
      [
        "Ġke",
        "ep"
      ],
      [
        "Ġfriend",
        "s"
      ],
      [
        "Ġcon",
        "f"
      ],
      [
        "Ġbe",
        "aut"
      ],
      [
        "ĠA",
        "l"
      ],
      [
        "Ġcur",
        "rent"
      ],
      [
        "Ġint",
        "elligence"
      ],
      [
        "Ġsk",
        "y"
      ],
      [
        "Ġunt",
        "il"
      ],
      [
        "Ġ",
        "i"
      ],
      [
        "Ġind",
        "ust"
      ],
      [
        "ĠO",
        "ne"
      ],
      [
        "Ġman",
        "age"
      ],
      [
        "Ġsk",
        "ills"
      ],
      [
        "Ġsu",
        "g"
      ],
      [
        "Ġre",
        "f"
      ],
      [
        "ol",
        "s"
      ],
      [
        "Ġdevelop",
        "ment"
      ],
      [
        "t",
        "le"
      ],
      [
        "Ġw",
        "al"
      ],
      [
        "Ġca",
        "us"
      ],
      [
        "1",
        "9"
      ],
      [
        "si",
        "ve"
      ],
      [
        "ĠS",
        "p"
      ],
      [
        "sel",
        "f"
      ],
      [
        "Ġcreat",
        "ing"
      ],
      [
        "ul",
        "ation"
      ],
      [
        "Ġident",
        "ify"
      ],
      [
        "Ġmed",
        "ia"
      ],
      [
        "Ġeffect",
        "ive"
      ],
      [
        "Ġcomm",
        "on"
      ],
      [
        "Ġs",
        "om"
      ],
      [
        "Ġbe",
        "h"
      ],
      [
        "ne",
        "w"
      ],
      [
        "ra",
        "y"
      ],
      [
        "i",
        "ed"
      ],
      [
        "ĠI",
        "nd"
      ],
      [
        "Ġens",
        "ure"
      ],
      [
        "Ġprovid",
        "ing"
      ],
      [
        "Ġc",
        "up"
      ],
      [
        "ĠU",
        "S"
      ],
      [
        "end",
        "ing"
      ],
      [
        "p",
        "s"
      ],
      [
        "iz",
        "ing"
      ],
      [
        "Ġperson",
        "al"
      ],
      [
        "Ġresp",
        "on"
      ],
      [
        "a",
        "ve"
      ],
      [
        "one",
        "y"
      ],
      [
        "er",
        "c"
      ],
      [
        "Ġc",
        "ent"
      ],
      [
        "Ġd",
        "ig"
      ],
      [
        ")",
        ":"
      ],
      [
        "Ġinter",
        "n"
      ],
      [
        "Ġm",
        "ult"
      ],
      [
        "Ġin",
        "st"
      ],
      [
        "er",
        "y"
      ],
      [
        "Ġd",
        "ri"
      ],
      [
        "Ġbre",
        "ak"
      ],
      [
        "y",
        "m"
      ],
      [
        "Ġin",
        "put"
      ],
      [
        "Ġs",
        "ources"
      ],
      [
        "Ġp",
        "ri"
      ],
      [
        "Ġmarket",
        "s"
      ],
      [
        "Ġhelp",
        "s"
      ],
      [
        "pport",
        "un"
      ],
      [
        "Ġcon",
        "c"
      ],
      [
        "eth",
        "od"
      ],
      [
        "Ġbusiness",
        "es"
      ],
      [
        "f",
        "ic"
      ],
      [
        "oo",
        "king"
      ],
      [
        "Ġde",
        "m"
      ],
      [
        "j",
        "oy"
      ],
      [
        "i",
        "an"
      ],
      [
        "Ġstr",
        "ong"
      ],
      [
        "Ġh",
        "ard"
      ],
      [
        "ĠA",
        "s"
      ],
      [
        "Ġproduct",
        "s"
      ],
      [
        "Ġcont",
        "ain"
      ],
      [
        "p",
        "are"
      ],
      [
        "e",
        "e"
      ],
      [
        "Ġre",
        "al"
      ],
      [
        "Ġd",
        "ra"
      ],
      [
        "y",
        "c"
      ],
      [
        "Ġre",
        "le"
      ],
      [
        "Ġproble",
        "m"
      ],
      [
        "ĠUn",
        "ited"
      ],
      [
        "t",
        "ed"
      ],
      [
        "Ġe",
        "asi"
      ],
      [
        "Ġbec",
        "ome"
      ],
      [
        "1",
        "0"
      ],
      [
        "c",
        "are"
      ],
      [
        "Ġs",
        "ame"
      ],
      [
        "Ġcont",
        "ro"
      ],
      [
        "Ġr",
        "ange"
      ],
      [
        "and",
        "s"
      ],
      [
        "ĠĠĠĠ",
        "ĠĠĠĠ"
      ],
      [
        "Ġpl",
        "ace"
      ],
      [
        "fic",
        "ult"
      ],
      [
        "ou",
        "n"
      ],
      [
        "Ġj",
        "ust"
      ],
      [
        "Ġb",
        "i"
      ],
      [
        "ĠT",
        "o"
      ],
      [
        "Ġha",
        "pp"
      ],
      [
        "ĠL",
        "ist"
      ],
      [
        "Ġt",
        "ri"
      ],
      [
        "Ġb",
        "ased"
      ],
      [
        "Ġmu",
        "ch"
      ],
      [
        "ĠFin",
        "ally"
      ],
      [
        "Ġ",
        "7"
      ],
      [
        "Ġw",
        "rit"
      ],
      [
        ")",
        ","
      ],
      [
        "Ġb",
        "o"
      ],
      [
        "Ġon",
        "ly"
      ],
      [
        "Ġo",
        "pportun"
      ],
      [
        "ĠP",
        "l"
      ],
      [
        "Ġitem",
        "s"
      ],
      [
        "Ġpred",
        "ict"
      ],
      [
        "Ġphysic",
        "al"
      ],
      [
        "'",
        "m"
      ],
      [
        "Ġne",
        "ver"
      ],
      [
        "Ġem",
        "ploy"
      ],
      [
        "Ġmo",
        "ve"
      ],
      [
        "os",
        "p"
      ],
      [
        "Ġunderstand",
        "ing"
      ],
      [
        "Ġt",
        "im"
      ],
      [
        "Ġd",
        "ue"
      ],
      [
        "pp",
        "ing"
      ],
      [
        "i",
        "red"
      ],
      [
        "Ġp",
        "ract"
      ],
      [
        "am",
        "p"
      ],
      [
        "in",
        "s"
      ],
      [
        "ver",
        "n"
      ],
      [
        "Ġwith",
        "out"
      ],
      [
        "Ġwh",
        "y"
      ],
      [
        "ff",
        "ect"
      ],
      [
        "Ġinter",
        "act"
      ],
      [
        "Ġstud",
        "ents"
      ],
      [
        "Ġse",
        "e"
      ],
      [
        "ar",
        "th"
      ],
      [
        "a",
        "z"
      ],
      [
        "Ġm",
        "ethod"
      ],
      [
        "Ġm",
        "aj"
      ],
      [
        "Ġse",
        "arch"
      ],
      [
        "in",
        "ation"
      ],
      [
        "Ġdif",
        "ficult"
      ],
      [
        "Ġv",
        "ol"
      ],
      [
        "Ġcomple",
        "x"
      ],
      [
        "Ġre",
        "se"
      ],
      [
        "Ġart",
        "ificial"
      ],
      [
        "Ġdet",
        "erm"
      ],
      [
        "ient",
        "s"
      ],
      [
        "c",
        "i"
      ],
      [
        "ut",
        "es"
      ],
      [
        "s",
        "is"
      ],
      [
        "Ġw",
        "ind"
      ],
      [
        "Ġch",
        "all"
      ],
      [
        "Ġcharact",
        "er"
      ],
      [
        "mer",
        "ic"
      ],
      [
        "er",
        "ing"
      ],
      [
        "Ġh",
        "im"
      ],
      [
        "r",
        "ing"
      ],
      [
        "Ġsa",
        "f"
      ],
      [
        "c",
        "ri"
      ],
      [
        "ĠF",
        "or"
      ],
      [
        "ĠT",
        "ell"
      ],
      [
        "Ġl",
        "ess"
      ],
      [
        "Ġcommun",
        "ication"
      ],
      [
        "Ġfe",
        "w"
      ],
      [
        "Ġmarket",
        "ing"
      ],
      [
        "Ġgo",
        "vern"
      ],
      [
        "Ġcont",
        "in"
      ],
      [
        "Ġrec",
        "ogn"
      ],
      [
        ".",
        "\""
      ],
      [
        "o",
        "ve"
      ],
      [
        "ch",
        "o"
      ],
      [
        "Ġcl",
        "ass"
      ],
      [
        "ou",
        "d"
      ],
      [
        "Ġcom",
        "b"
      ],
      [
        "at",
        "h"
      ],
      [
        "Ġall",
        "ows"
      ],
      [
        "Ġthe",
        "se"
      ],
      [
        "Ġpossi",
        "ble"
      ],
      [
        "ĠI",
        "m"
      ],
      [
        "Ġrel",
        "ations"
      ],
      [
        "Ġincre",
        "asing"
      ],
      [
        "h",
        "or"
      ],
      [
        "Ġg",
        "ame"
      ],
      [
        "Ġr",
        "un"
      ],
      [
        "ater",
        "ial"
      ],
      [
        "an",
        "k"
      ],
      [
        "Ġeconom",
        "ic"
      ],
      [
        "Ġus",
        "es"
      ],
      [
        "Ġch",
        "ild"
      ],
      [
        "Ġpo",
        "ll"
      ],
      [
        "Ġm",
        "ot"
      ],
      [
        "Ġc",
        "ity"
      ],
      [
        "eth",
        "ing"
      ],
      [
        "Ġbu",
        "y"
      ],
      [
        ")",
        "."
      ],
      [
        "Ġde",
        "ep"
      ],
      [
        "Ġstruct",
        "ure"
      ],
      [
        "Ġv",
        "ir"
      ],
      [
        "Ġhealth",
        "y"
      ],
      [
        "Ġincre",
        "ased"
      ],
      [
        "n",
        "ers"
      ],
      [
        "ĠC",
        "l"
      ],
      [
        "sid",
        "e"
      ],
      [
        "ent",
        "al"
      ],
      [
        "ra",
        "ph"
      ],
      [
        "Ġg",
        "iven"
      ],
      [
        "pl",
        "es"
      ],
      [
        "el",
        "s"
      ],
      [
        "Ġvari",
        "ety"
      ],
      [
        "Ġal",
        "ways"
      ],
      [
        "iqu",
        "e"
      ],
      [
        "t",
        "o"
      ],
      [
        "Ġneed",
        "s"
      ],
      [
        "Ġacc",
        "ount"
      ],
      [
        "Ġlo",
        "ve"
      ],
      [
        "ĠA",
        "pp"
      ],
      [
        "Ġlevel",
        "s"
      ],
      [
        "Ġm",
        "aterial"
      ],
      [
        "ĠA",
        "meric"
      ],
      [
        "Ġto",
        "o"
      ],
      [
        "Ġpart",
        "ic"
      ],
      [
        "Ġg",
        "r"
      ],
      [
        "Ġle",
        "t"
      ],
      [
        "Ġperform",
        "ance"
      ],
      [
        "Ġsom",
        "ething"
      ],
      [
        "Ġp",
        "ass"
      ],
      [
        "Ġ",
        "x"
      ],
      [
        "ver",
        "se"
      ],
      [
        "ĠD",
        "ef"
      ],
      [
        "led",
        "ge"
      ],
      [
        "Ġc",
        "ult"
      ],
      [
        "Ġdecis",
        "ions"
      ],
      [
        "Ġcons",
        "um"
      ],
      [
        "Ġsec",
        "urity"
      ],
      [
        "ch",
        "ie"
      ],
      [
        "Ġc",
        "all"
      ],
      [
        "el",
        "f"
      ],
      [
        "âĢ",
        "Ŀ"
      ],
      [
        "Ġl",
        "im"
      ],
      [
        "ast",
        "e"
      ],
      [
        "u",
        "ll"
      ],
      [
        "an",
        "ces"
      ],
      [
        "ĠT",
        "e"
      ],
      [
        "Ġinclud",
        "ing"
      ],
      [
        "Ġpos",
        "itive"
      ],
      [
        "o",
        "v"
      ],
      [
        "ne",
        "y"
      ],
      [
        "iv",
        "ity"
      ],
      [
        "Ġo",
        "per"
      ],
      [
        "Ġtre",
        "nd"
      ],
      [
        "Ġag",
        "ain"
      ],
      [
        "Ġs",
        "it"
      ],
      [
        "ut",
        "ions"
      ],
      [
        "Ġare",
        "a"
      ],
      [
        "Ġp",
        "ay"
      ],
      [
        "Ġconsi",
        "der"
      ],
      [
        "Ġbec",
        "ause"
      ],
      [
        "Ġcl",
        "assi"
      ],
      [
        "Ġc",
        "ode"
      ],
      [
        "Ġwor",
        "d"
      ],
      [
        "Ġsp",
        "read"
      ],
      [
        "Ġg",
        "u"
      ],
      [
        "ĠâĢ",
        "ľ"
      ],
      [
        "Ġl",
        "ook"
      ],
      [
        "Ġtyp",
        "ically"
      ],
      [
        "Ġrelations",
        "hip"
      ],
      [
        "p",
        "r"
      ],
      [
        "Ġb",
        "ook"
      ],
      [
        "ast",
        "er"
      ],
      [
        "Ġr",
        "ate"
      ],
      [
        "av",
        "i"
      ],
      [
        "Ġro",
        "bot"
      ],
      [
        "b",
        "r"
      ],
      [
        "Ġre",
        "ach"
      ],
      [
        "oo",
        "ks"
      ],
      [
        "vol",
        "ution"
      ],
      [
        "Ġexpl",
        "ore"
      ],
      [
        "m",
        "e"
      ],
      [
        "Ġapplic",
        "ations"
      ],
      [
        "Ġmaj",
        "or"
      ],
      [
        "it",
        "ing"
      ],
      [
        "ĠWh",
        "y"
      ],
      [
        "Ġrese",
        "arch"
      ],
      [
        "Ġdig",
        "ital"
      ],
      [
        "os",
        "s"
      ],
      [
        "Ġcontro",
        "l"
      ],
      [
        "i",
        "um"
      ],
      [
        "or",
        "ing"
      ],
      [
        "at",
        "ch"
      ],
      [
        "Ġh",
        "ist"
      ],
      [
        "Ġnetwor",
        "k"
      ],
      [
        "ĠâĢ",
        "ĵ"
      ],
      [
        "Ġj",
        "our"
      ],
      [
        "Ġinvol",
        "ves"
      ],
      [
        "Ġele",
        "ments"
      ],
      [
        "Ġpop",
        "ular"
      ],
      [
        "Ġf",
        "ac"
      ],
      [
        "Ġquest",
        "ions"
      ],
      [
        "l",
        "ess"
      ],
      [
        "Ġs",
        "w"
      ],
      [
        "Ġm",
        "ar"
      ],
      [
        "Ġl",
        "ay"
      ],
      [
        "ab",
        "or"
      ],
      [
        "Ġcount",
        "ries"
      ],
      [
        "ressi",
        "on"
      ],
      [
        "2",
        "0"
      ],
      [
        "Ġev",
        "ent"
      ],
      [
        "Ġgo",
        "als"
      ],
      [
        "Ġeduc",
        "ation"
      ],
      [
        "al",
        "e"
      ],
      [
        "Ġf",
        "ill"
      ],
      [
        "Ġm",
        "ag"
      ],
      [
        "Ġg",
        "rou"
      ],
      [
        "Ġopt",
        "im"
      ],
      [
        "Ġchang",
        "es"
      ],
      [
        "a",
        "per"
      ],
      [
        "Ġc",
        "ertain"
      ],
      [
        "Ġhealth",
        "care"
      ],
      [
        "u",
        "ation"
      ],
      [
        "ut",
        "e"
      ],
      [
        "Ġalgorith",
        "ms"
      ],
      [
        "Ġa",
        "way"
      ],
      [
        "ĠM",
        "ake"
      ],
      [
        "m",
        "ar"
      ],
      [
        "ĠSt",
        "ates"
      ],
      [
        "or",
        "ies"
      ],
      [
        "Ġ",
        "9"
      ],
      [
        "Ġa",
        "fter"
      ],
      [
        "ar",
        "ing"
      ],
      [
        "a",
        "h"
      ],
      [
        "b",
        "on"
      ],
      [
        "Ġmodel",
        "s"
      ],
      [
        "Ġab",
        "ility"
      ],
      [
        "Ġreg",
        "ular"
      ],
      [
        "Ġen",
        "joy"
      ],
      [
        "our",
        "ce"
      ],
      [
        "vie",
        "w"
      ],
      [
        "Ġd",
        "uring"
      ],
      [
        "Ġpattern",
        "s"
      ],
      [
        "Ġl",
        "ow"
      ],
      [
        "Ġart",
        "icle"
      ],
      [
        "Ġeng",
        "ine"
      ],
      [
        "p",
        "ect"
      ],
      [
        "Ġapp",
        "ro"
      ],
      [
        "ĠThe",
        "re"
      ],
      [
        "Ġess",
        "ential"
      ],
      [
        "Ġp",
        "ain"
      ],
      [
        "ot",
        "her"
      ],
      [
        "l",
        "ight"
      ],
      [
        "Ġall",
        "owing"
      ],
      [
        "Ġt",
        "aking"
      ],
      [
        "Ġpro",
        "du"
      ],
      [
        "Ġad",
        "dition"
      ],
      [
        "Ġqu",
        "ality"
      ],
      [
        "Ġme",
        "et"
      ],
      [
        "es",
        "sion"
      ],
      [
        "Ġo",
        "ld"
      ],
      [
        "Ġadv",
        "ant"
      ],
      [
        "oura",
        "ge"
      ],
      [
        "Ġm",
        "oney"
      ],
      [
        "Ġanaly",
        "sis"
      ],
      [
        "m",
        "osp"
      ],
      [
        "Ġa",
        "chie"
      ],
      [
        "Ġeffect",
        "s"
      ],
      [
        "Ġprovid",
        "es"
      ],
      [
        "ĠY",
        "ou"
      ],
      [
        "i",
        "ble"
      ],
      [
        "Ġall",
        "ow"
      ],
      [
        "Ġw",
        "ant"
      ],
      [
        "Ġhe",
        "art"
      ],
      [
        "Ġcreat",
        "ive"
      ],
      [
        "Ġmean",
        "ing"
      ],
      [
        "ĠI",
        "d"
      ],
      [
        "Ġcom",
        "e"
      ],
      [
        "Ġdecis",
        "ion"
      ],
      [
        "Ġcon",
        "cept"
      ],
      [
        "Ġb",
        "ody"
      ],
      [
        "Ġn",
        "ame"
      ],
      [
        "Ġp",
        "ast"
      ],
      [
        "Ġp",
        "resent"
      ],
      [
        "Ġstep",
        "s"
      ],
      [
        "b",
        "ack"
      ],
      [
        "e",
        "g"
      ],
      [
        "at",
        "form"
      ],
      [
        "Ġknow",
        "ledge"
      ],
      [
        "Ġtrans",
        "port"
      ],
      [
        "Ġpower",
        "ful"
      ],
      [
        "r",
        "al"
      ],
      [
        "ort",
        "s"
      ],
      [
        "Ġg",
        "reen"
      ],
      [
        "Ġnum",
        "bers"
      ],
      [
        "g",
        "ing"
      ],
      [
        "Ġd",
        "ire"
      ],
      [
        "/",
        "/"
      ],
      [
        "Ġstrate",
        "g"
      ],
      [
        "Ġmo",
        "vie"
      ],
      [
        "Ġgrow",
        "th"
      ],
      [
        "Ġhig",
        "her"
      ],
      [
        "v",
        "ant"
      ],
      [
        "cess",
        "ary"
      ],
      [
        "Ġb",
        "ir"
      ],
      [
        "Ġst",
        "ock"
      ],
      [
        "ur",
        "ate"
      ],
      [
        "re",
        "t"
      ],
      [
        "ĠW",
        "or"
      ],
      [
        "Ġpur",
        "ch"
      ],
      [
        "Ġmin",
        "utes"
      ],
      [
        "Ġset",
        "ting"
      ],
      [
        "Ġat",
        "mosp"
      ],
      [
        "Ġbeh",
        "avi"
      ],
      [
        "Ġs",
        "ing"
      ],
      [
        "ĠW",
        "ith"
      ],
      [
        "00",
        "0"
      ],
      [
        "im",
        "ent"
      ],
      [
        "ver",
        "t"
      ],
      [
        "Ġfu",
        "ll"
      ],
      [
        "Ġpo",
        "st"
      ],
      [
        "ip",
        "le"
      ],
      [
        "u",
        "als"
      ],
      [
        "Ġf",
        "ield"
      ],
      [
        "ĠI",
        "nt"
      ],
      [
        "ĠS",
        "h"
      ],
      [
        "us",
        "h"
      ],
      [
        "Ġpl",
        "atform"
      ],
      [
        "Ġcol",
        "lect"
      ],
      [
        "Ġanim",
        "als"
      ],
      [
        "ĠDef",
        "ine"
      ],
      [
        "Ġt",
        "ar"
      ],
      [
        "ĠE",
        "arth"
      ],
      [
        "Ġexper",
        "i"
      ],
      [
        "ĠN",
        "o"
      ],
      [
        "it",
        "ions"
      ],
      [
        "il",
        "ities"
      ],
      [
        "ĠOn",
        "ce"
      ],
      [
        "y",
        "le"
      ],
      [
        "at",
        "a"
      ],
      [
        "Ġex",
        "c"
      ],
      [
        "f",
        "act"
      ],
      [
        "Ġdiffer",
        "ence"
      ],
      [
        "Ġve",
        "get"
      ],
      [
        "Ġf",
        "il"
      ],
      [
        "Ġth",
        "ough"
      ],
      [
        "Ġa",
        "verage"
      ],
      [
        "Ġl",
        "og"
      ],
      [
        "Ġl",
        "ast"
      ],
      [
        "Ġtra",
        "vel"
      ],
      [
        "Ġth",
        "ose"
      ],
      [
        "Ġch",
        "o"
      ],
      [
        "Ġe",
        "ar"
      ],
      [
        "id",
        "es"
      ],
      [
        "âĢ",
        "¢"
      ],
      [
        "new",
        "able"
      ],
      [
        "o",
        "es"
      ],
      [
        "Ġpol",
        "ic"
      ],
      [
        "Ġbel",
        "ie"
      ],
      [
        "Ġfun",
        "ction"
      ],
      [
        "Ġp",
        "ar"
      ],
      [
        "Ġact",
        "ion"
      ],
      [
        "Ġacc",
        "urate"
      ],
      [
        "f",
        "ace"
      ],
      [
        "Ġdet",
        "ect"
      ],
      [
        "as",
        "y"
      ],
      [
        "Ġsign",
        "ific"
      ],
      [
        "Ġb",
        "ra"
      ],
      [
        "red",
        "ients"
      ],
      [
        "ĠId",
        "ent"
      ],
      [
        "our",
        "s"
      ],
      [
        "Ġem",
        "ail"
      ],
      [
        "i",
        "ety"
      ],
      [
        "om",
        "m"
      ],
      [
        "Ġsh",
        "ow"
      ],
      [
        "Ġd",
        "ark"
      ],
      [
        "Ġst",
        "ress"
      ],
      [
        "Ġo",
        "cc"
      ],
      [
        "Ġb",
        "ro"
      ],
      [
        "Ġrequ",
        "ire"
      ],
      [
        "\"",
        ","
      ],
      [
        "Ġjour",
        "ney"
      ],
      [
        "ap",
        "e"
      ],
      [
        "ission",
        "s"
      ],
      [
        "Ġf",
        "our"
      ],
      [
        "Ġf",
        "re"
      ],
      [
        "Ġatmosp",
        "here"
      ],
      [
        "Ġs",
        "ound"
      ],
      [
        "ition",
        "al"
      ],
      [
        "Ġprocess",
        "ing"
      ],
      [
        "Ġexp",
        "ect"
      ],
      [
        "Ġg",
        "ain"
      ],
      [
        "Ġpr",
        "int"
      ],
      [
        "s",
        "w"
      ],
      [
        "Ġs",
        "elf"
      ],
      [
        "u",
        "ra"
      ],
      [
        "pp",
        "ed"
      ],
      [
        "Ġsec",
        "ure"
      ],
      [
        "m",
        "at"
      ],
      [
        "Ġup",
        "on"
      ],
      [
        "Ġav",
        "ail"
      ],
      [
        "Ġst",
        "and"
      ],
      [
        "ĠIdent",
        "ify"
      ],
      [
        "Ġcost",
        "s"
      ],
      [
        "Ġe",
        "st"
      ],
      [
        "Ġfe",
        "ed"
      ],
      [
        "Ġtas",
        "k"
      ],
      [
        "Ġsuccess",
        "ful"
      ],
      [
        "ĠS",
        "ug"
      ],
      [
        "anc",
        "ed"
      ],
      [
        "ward",
        "s"
      ],
      [
        "Ġl",
        "iving"
      ],
      [
        "Ġgovern",
        "ment"
      ],
      [
        "l",
        "ish"
      ],
      [
        "Ġun",
        "ique"
      ],
      [
        "i",
        "od"
      ],
      [
        "t",
        "t"
      ],
      [
        "Ġ",
        "Q"
      ],
      [
        "Ġcle",
        "ar"
      ],
      [
        "Ġbegin",
        "ners"
      ],
      [
        "Ġhe",
        "ad"
      ],
      [
        "ĠNe",
        "w"
      ],
      [
        "Ġtar",
        "get"
      ],
      [
        "b",
        "ased"
      ],
      [
        "Ġa",
        "ffect"
      ],
      [
        "Ġl",
        "ine"
      ],
      [
        "Ġl",
        "ooking"
      ],
      [
        "Ġt",
        "er"
      ],
      [
        "ĠI",
        "f"
      ],
      [
        "Ġsc",
        "ient"
      ],
      [
        "ĠDes",
        "ign"
      ],
      [
        "Ġtyp",
        "es"
      ],
      [
        "Ġe",
        "l"
      ],
      [
        "Ġre",
        "newable"
      ],
      [
        "Ġpoll",
        "ution"
      ],
      [
        "ĠG",
        "ive"
      ],
      [
        "Ġne",
        "cessary"
      ],
      [
        "av",
        "es"
      ],
      [
        "Ġa",
        "ud"
      ],
      [
        "ent",
        "ly"
      ],
      [
        "Ġindivid",
        "ual"
      ],
      [
        "<",
        "/"
      ],
      [
        "Ġsome",
        "one"
      ],
      [
        "Ġs",
        "cho"
      ],
      [
        "Ġp",
        "ie"
      ],
      [
        "Ġspec",
        "ies"
      ],
      [
        "an",
        "e"
      ],
      [
        "Ġph",
        "r"
      ],
      [
        "st",
        "ain"
      ],
      [
        "Ġc",
        "amp"
      ],
      [
        "Ġsp",
        "ace"
      ],
      [
        "os",
        "ed"
      ],
      [
        "Ġ",
        "er"
      ],
      [
        "Ġha",
        "ving"
      ],
      [
        "Ġimport",
        "ance"
      ],
      [
        "Ġcomp",
        "an"
      ],
      [
        "Ġrep",
        "resent"
      ],
      [
        "ll",
        "ing"
      ],
      [
        "Ġcar",
        "bon"
      ],
      [
        "Ġtemper",
        "ature"
      ],
      [
        "op",
        "e"
      ],
      [
        "Ġmed",
        "ical"
      ],
      [
        "ren",
        "g"
      ],
      [
        "Ġst",
        "ill"
      ],
      [
        "Ġindust",
        "ry"
      ],
      [
        "t",
        "al"
      ],
      [
        "le",
        "ep"
      ],
      [
        "am",
        "es"
      ],
      [
        "Ġsu",
        "pp"
      ],
      [
        "v",
        "al"
      ],
      [
        "v",
        "is"
      ],
      [
        "Ġsu",
        "stain"
      ],
      [
        "Ġwe",
        "e"
      ],
      [
        "ĠSug",
        "gest"
      ],
      [
        "ff",
        "ic"
      ],
      [
        "ĠAr",
        "t"
      ],
      [
        "Ġac",
        "ross"
      ],
      [
        "a",
        "ur"
      ],
      [
        "Ġl",
        "it"
      ],
      [
        "ip",
        "s"
      ],
      [
        "Ġem",
        "ot"
      ],
      [
        "ĠPro",
        "v"
      ],
      [
        "Ġide",
        "as"
      ],
      [
        "Ġstrateg",
        "ies"
      ],
      [
        "Ġb",
        "al"
      ],
      [
        "Ġcomp",
        "are"
      ],
      [
        "Ġmain",
        "tain"
      ],
      [
        "`",
        "`"
      ],
      [
        "in",
        "ce"
      ],
      [
        "Ġex",
        "erc"
      ],
      [
        "Ġco",
        "ll"
      ],
      [
        "Ġg",
        "enerate"
      ],
      [
        "ĠF",
        "ind"
      ],
      [
        "Ġcle",
        "an"
      ],
      [
        "S",
        "t"
      ],
      [
        "Ġse",
        "ver"
      ],
      [
        "Ġd",
        "id"
      ],
      [
        "Ġactiv",
        "ity"
      ],
      [
        "Ġs",
        "ize"
      ],
      [
        "Ġresult",
        "s"
      ],
      [
        "p",
        "ro"
      ],
      [
        "Ġt",
        "ax"
      ],
      [
        "ĠDe",
        "velop"
      ],
      [
        "Ġf",
        "ree"
      ],
      [
        "pl",
        "ace"
      ],
      [
        "Ġo",
        "il"
      ],
      [
        "Ġimpro",
        "ved"
      ],
      [
        "Ġsignific",
        "ant"
      ],
      [
        "Ġm",
        "il"
      ],
      [
        "us",
        "s"
      ],
      [
        "Ġth",
        "ink"
      ],
      [
        "i",
        "res"
      ],
      [
        "av",
        "or"
      ],
      [
        "b",
        "y"
      ],
      [
        "Ġt",
        "ru"
      ],
      [
        "Ġt",
        "ry"
      ],
      [
        "u",
        "ment"
      ],
      [
        "Ġredu",
        "cing"
      ],
      [
        "Ġchall",
        "eng"
      ],
      [
        "le",
        "t"
      ],
      [
        "Ġtrad",
        "itional"
      ],
      [
        "Ġrel",
        "ated"
      ],
      [
        "t",
        "ual"
      ],
      [
        "Ġstud",
        "y"
      ],
      [
        "d",
        "en"
      ],
      [
        "Ġw",
        "ide"
      ],
      [
        "Ġlead",
        "ing"
      ],
      [
        "Ġg",
        "ive"
      ],
      [
        "er",
        "t"
      ],
      [
        "Ġcol",
        "or"
      ],
      [
        "Ġ",
        "ver"
      ],
      [
        "ve",
        "y"
      ],
      [
        "Ġv",
        "ie"
      ],
      [
        "Ġfore",
        "st"
      ],
      [
        "Ġfeel",
        "ing"
      ],
      [
        "Ġpro",
        "per"
      ],
      [
        "ĠP",
        "re"
      ],
      [
        "Ġintern",
        "et"
      ],
      [
        "Ġl",
        "and"
      ],
      [
        "Ġopportun",
        "ities"
      ],
      [
        "Ġmo",
        "der"
      ],
      [
        "Ġtechn",
        "olog"
      ],
      [
        "o",
        "id"
      ],
      [
        "Ġs",
        "ense"
      ],
      [
        "Ġh",
        "ouse"
      ],
      [
        "Ġknow",
        "n"
      ],
      [
        "Ġb",
        "an"
      ],
      [
        "Ġem",
        "issions"
      ],
      [
        "Ġadv",
        "ent"
      ],
      [
        "Ġle",
        "g"
      ],
      [
        "Ġev",
        "ents"
      ],
      [
        "Ġl",
        "ives"
      ],
      [
        "i",
        "ency"
      ],
      [
        "Ġe",
        "ver"
      ],
      [
        "ac",
        "es"
      ],
      [
        "Ġdis",
        "e"
      ],
      [
        "ce",
        "an"
      ],
      [
        "Ġcomple",
        "te"
      ],
      [
        "Ġinf",
        "lu"
      ],
      [
        "n",
        "g"
      ],
      [
        "Ġl",
        "oss"
      ],
      [
        "ĠF",
        "r"
      ],
      [
        "Ġper",
        "iod"
      ],
      [
        "Ġ",
        "{"
      ],
      [
        "ion",
        "al"
      ],
      [
        "ill",
        "ion"
      ],
      [
        "Ġme",
        "ans"
      ],
      [
        "Ġcount",
        "ry"
      ],
      [
        "Ġbl",
        "ue"
      ],
      [
        "at",
        "is"
      ],
      [
        "Ġpo",
        "em"
      ],
      [
        "Ġopt",
        "ions"
      ],
      [
        "Ġproble",
        "ms"
      ],
      [
        "Ġmeas",
        "ures"
      ],
      [
        "m",
        "ed"
      ],
      [
        "Ġl",
        "ate"
      ],
      [
        "Ġwor",
        "king"
      ],
      [
        "Ġspec",
        "ific"
      ],
      [
        "on",
        "es"
      ],
      [
        "si",
        "ble"
      ],
      [
        "Ġsol",
        "utions"
      ],
      [
        "is",
        "s"
      ],
      [
        "as",
        "on"
      ],
      [
        "Ġvari",
        "ous"
      ],
      [
        "Ġpoint",
        "s"
      ],
      [
        "Ġagain",
        "st"
      ],
      [
        "ĠProv",
        "ide"
      ],
      [
        "ĠW",
        "hen"
      ],
      [
        "Ġloc",
        "al"
      ],
      [
        "Ġtim",
        "es"
      ],
      [
        "ist",
        "s"
      ],
      [
        "Ġsug",
        "gest"
      ],
      [
        "in",
        "c"
      ],
      [
        "Ġcor",
        "re"
      ],
      [
        "Ġp",
        "aper"
      ],
      [
        "Ġconsi",
        "st"
      ],
      [
        "Ġfeed",
        "back"
      ],
      [
        "k",
        "ed"
      ],
      [
        "Ġm",
        "om"
      ],
      [
        "Ġst",
        "reng"
      ],
      [
        "Ġcomp",
        "et"
      ],
      [
        "Ġchild",
        "ren"
      ],
      [
        "Ġar",
        "ray"
      ],
      [
        "Ġpe",
        "ace"
      ],
      [
        "Ġmethod",
        "s"
      ],
      [
        "le",
        "ment"
      ],
      [
        "Ġtransport",
        "ation"
      ],
      [
        "Ġto",
        "tal"
      ],
      [
        "ac",
        "y"
      ],
      [
        "ĠG",
        "P"
      ],
      [
        "Ġd",
        "on"
      ],
      [
        "eng",
        "th"
      ],
      [
        "Ġc",
        "at"
      ],
      [
        "Ġare",
        "as"
      ],
      [
        "Ġhum",
        "ans"
      ],
      [
        "Ġrem",
        "ain"
      ],
      [
        "T",
        "h"
      ],
      [
        "a",
        "pp"
      ],
      [
        "Ġc",
        "ard"
      ],
      [
        "em",
        "ic"
      ],
      [
        "omm",
        "end"
      ],
      [
        "Ġm",
        "ental"
      ],
      [
        "ĠThe",
        "se"
      ],
      [
        "Ġbr",
        "ight"
      ],
      [
        "Ġpop",
        "ulation"
      ],
      [
        "Ġa",
        "ssi"
      ],
      [
        "ĠR",
        "es"
      ],
      [
        "iqu",
        "es"
      ],
      [
        "ĠS",
        "c"
      ],
      [
        "Ġne",
        "g"
      ],
      [
        "ast",
        "ic"
      ],
      [
        "Ġbehavi",
        "or"
      ],
      [
        "Ġe",
        "y"
      ],
      [
        "ĠB",
        "e"
      ],
      [
        "Ġc",
        "ause"
      ],
      [
        "Ġm",
        "ind"
      ],
      [
        "Ġn",
        "ut"
      ],
      [
        "Ġm",
        "or"
      ],
      [
        "Ġspec",
        "ial"
      ],
      [
        "Ġd",
        "og"
      ],
      [
        "Ġwe",
        "ather"
      ],
      [
        "f",
        "ect"
      ],
      [
        "Ġm",
        "ax"
      ],
      [
        "Ġcal",
        "cul"
      ],
      [
        "is",
        "ing"
      ],
      [
        "Ġdet",
        "ail"
      ],
      [
        "Ġfu",
        "nd"
      ],
      [
        "Ġspe",
        "ed"
      ],
      [
        "at",
        "ic"
      ],
      [
        "Ġn",
        "ature"
      ],
      [
        "Ġstud",
        "ent"
      ],
      [
        "Ġmanage",
        "ment"
      ],
      [
        "es",
        "e"
      ],
      [
        "po",
        "on"
      ],
      [
        "Ġt",
        "urn"
      ],
      [
        "Ġe",
        "gg"
      ],
      [
        "ĠIn",
        "c"
      ],
      [
        "Ġbr",
        "ing"
      ],
      [
        "Ġelect",
        "ric"
      ],
      [
        "Ġe",
        "asy"
      ],
      [
        "or",
        "n"
      ],
      [
        "le",
        "x"
      ],
      [
        "Ì",
        "¦"
      ],
      [
        "Ġl",
        "ive"
      ],
      [
        "Ġtra",
        "ck"
      ],
      [
        "Ġse",
        "en"
      ],
      [
        "vers",
        "ity"
      ],
      [
        "Ġadd",
        "ress"
      ],
      [
        "Ġstate",
        "ment"
      ],
      [
        "g",
        "es"
      ],
      [
        "Ġprogram",
        "ming"
      ],
      [
        "ĠApp",
        "le"
      ],
      [
        "om",
        "s"
      ],
      [
        "Ì¦",
        "Ì¦"
      ],
      [
        "Ġto",
        "ols"
      ],
      [
        "Ġmu",
        "sic"
      ],
      [
        "e",
        "ad"
      ],
      [
        "Ġt",
        "reat"
      ],
      [
        "Ġmult",
        "iple"
      ],
      [
        "ist",
        "ic"
      ],
      [
        "Ġn",
        "ow"
      ],
      [
        "ĠB",
        "y"
      ],
      [
        "Ġout",
        "put"
      ],
      [
        "Ġday",
        "s"
      ],
      [
        "Ġval",
        "ues"
      ],
      [
        "Ġgreat",
        "er"
      ],
      [
        "Ġstrate",
        "gy"
      ],
      [
        "c",
        "o"
      ],
      [
        "f",
        "or"
      ],
      [
        "Ġtre",
        "es"
      ],
      [
        "Ġs",
        "ym"
      ],
      [
        "Ġus",
        "ually"
      ],
      [
        "Ġmaterial",
        "s"
      ],
      [
        "Ġhe",
        "at"
      ],
      [
        "Ġd",
        "ream"
      ],
      [
        "Ġst",
        "ri"
      ],
      [
        "Ġwith",
        "in"
      ],
      [
        "we",
        "et"
      ],
      [
        "ĠEn",
        "g"
      ],
      [
        "Ġmon",
        "th"
      ],
      [
        "Ġbeaut",
        "y"
      ],
      [
        "r",
        "ation"
      ],
      [
        "Ġ1",
        "5"
      ],
      [
        "Ġin",
        "si"
      ],
      [
        "Ġhist",
        "ory"
      ],
      [
        "Ġother",
        "s"
      ],
      [
        "Ġeffic",
        "iency"
      ],
      [
        "Ġc",
        "ook"
      ],
      [
        "Ġs",
        "leep"
      ],
      [
        "Ġne",
        "ar"
      ],
      [
        "Ġclassi",
        "f"
      ],
      [
        "og",
        "raph"
      ],
      [
        "i",
        "er"
      ],
      [
        "y",
        "th"
      ],
      [
        "en",
        "e"
      ],
      [
        "Ġprocess",
        "es"
      ],
      [
        "Ġsh",
        "o"
      ],
      [
        "Ġtechn",
        "iques"
      ],
      [
        "Ġiss",
        "ues"
      ],
      [
        "Ġmoder",
        "n"
      ],
      [
        "e",
        "ver"
      ],
      [
        "Ġbut",
        "ter"
      ],
      [
        "Ġgrou",
        "p"
      ],
      [
        "Ġf",
        "urther"
      ],
      [
        "Ġm",
        "ess"
      ],
      [
        "ir",
        "c"
      ],
      [
        "oc",
        "i"
      ],
      [
        "ag",
        "n"
      ],
      [
        "Ġj",
        "oy"
      ],
      [
        "Ġyou",
        "ng"
      ],
      [
        "Ġtrad",
        "e"
      ],
      [
        "Ġcl",
        "oud"
      ],
      [
        "Ġphr",
        "ase"
      ],
      [
        "Ġs",
        "ide"
      ],
      [
        "Ġl",
        "ower"
      ],
      [
        "ĠG",
        "o"
      ],
      [
        "Ġp",
        "ress"
      ],
      [
        "res",
        "h"
      ],
      [
        "Ġenvironment",
        "al"
      ],
      [
        "Ġwrit",
        "ing"
      ],
      [
        "at",
        "or"
      ],
      [
        "Ġf",
        "ace"
      ],
      [
        "ic",
        "ate"
      ],
      [
        "Ġcomp",
        "on"
      ],
      [
        "Ġnew",
        "s"
      ],
      [
        "Ġindivid",
        "uals"
      ],
      [
        "Ġcaus",
        "ed"
      ],
      [
        "Ġcompan",
        "ies"
      ],
      [
        "Ġ",
        "ing"
      ],
      [
        "el",
        "t"
      ],
      [
        "Ġk",
        "ind"
      ],
      [
        "ount",
        "ain"
      ],
      [
        "m",
        "ore"
      ],
      [
        "Ġse",
        "lect"
      ],
      [
        "Ġneed",
        "ed"
      ],
      [
        "Ġtrend",
        "s"
      ],
      [
        "Ġavail",
        "able"
      ],
      [
        "f",
        "ort"
      ],
      [
        "o",
        "x"
      ],
      [
        "ĠA",
        "m"
      ],
      [
        "Ġ1",
        "2"
      ],
      [
        "Ġfill",
        "ed"
      ],
      [
        "e",
        "es"
      ],
      [
        "Ġsc",
        "ience"
      ],
      [
        "ĠO",
        "r"
      ],
      [
        "Ġw",
        "aste"
      ],
      [
        "wor",
        "d"
      ],
      [
        "is",
        "hed"
      ],
      [
        "if",
        "t"
      ],
      [
        "Ġse",
        "a"
      ],
      [
        "Ġcap",
        "ital"
      ],
      [
        "if",
        "ul"
      ],
      [
        "Ġdat",
        "ab"
      ],
      [
        "Ġscho",
        "ol"
      ],
      [
        "av",
        "ing"
      ],
      [
        "Ġrec",
        "ommend"
      ],
      [
        "p",
        "or"
      ],
      [
        "Ġt",
        "al"
      ],
      [
        "Ġde",
        "li"
      ],
      [
        "struct",
        "ions"
      ],
      [
        "Ġto",
        "day"
      ],
      [
        "Ġth",
        "ings"
      ],
      [
        "Ġcol",
        "ors"
      ],
      [
        "Ġvir",
        "tual"
      ],
      [
        "pp",
        "er"
      ],
      [
        "Ġdisc",
        "uss"
      ],
      [
        "Ġcomput",
        "ing"
      ],
      [
        "rop",
        "ri"
      ],
      [
        "ĠGP",
        "T"
      ],
      [
        "Ġph",
        "ot"
      ],
      [
        "Ġgo",
        "ing"
      ],
      [
        "ĠAmeric",
        "an"
      ],
      [
        "Ġs",
        "ource"
      ],
      [
        "ĠF",
        "urther"
      ],
      [
        "un",
        "ch"
      ],
      [
        "Ġra",
        "in"
      ],
      [
        "Ġpri",
        "v"
      ],
      [
        "|",
        "--------"
      ],
      [
        "in",
        "a"
      ],
      [
        "ĠE",
        "m"
      ],
      [
        "Ġwor",
        "ks"
      ],
      [
        "Ġinclud",
        "es"
      ],
      [
        "Ġprof",
        "ession"
      ],
      [
        "cri",
        "ption"
      ],
      [
        "Ġrel",
        "i"
      ],
      [
        "Ġin",
        "n"
      ],
      [
        "ra",
        "d"
      ],
      [
        "Ġwarm",
        "ing"
      ],
      [
        "Ġsing",
        "le"
      ],
      [
        "Ġte",
        "as"
      ],
      [
        "p",
        "ar"
      ],
      [
        "Ġb",
        "at"
      ],
      [
        "ropri",
        "ate"
      ],
      [
        "j",
        "ust"
      ],
      [
        "Ġne",
        "xt"
      ],
      [
        "ĠAd",
        "d"
      ],
      [
        "i",
        "et"
      ],
      [
        "__",
        "__"
      ],
      [
        "Ġt",
        "able"
      ],
      [
        "Ġan",
        "sw"
      ],
      [
        "iv",
        "ed"
      ],
      [
        "ĠA",
        "fter"
      ],
      [
        "Ġass",
        "oci"
      ],
      [
        "Ġ",
        "very"
      ],
      [
        "Ġp",
        "age"
      ],
      [
        "Ġf",
        "ar"
      ],
      [
        "Ġd",
        "oc"
      ],
      [
        "Ġst",
        "op"
      ],
      [
        "Ġint",
        "ro"
      ],
      [
        "Ġar",
        "g"
      ],
      [
        "Ġocc",
        "ur"
      ],
      [
        "ort",
        "h"
      ],
      [
        "Ġcl",
        "ose"
      ],
      [
        "Ġsol",
        "ution"
      ],
      [
        "Ġeconom",
        "y"
      ],
      [
        "en",
        "ing"
      ],
      [
        "Ġover",
        "all"
      ],
      [
        "u",
        "se"
      ],
      [
        "pl",
        "ay"
      ],
      [
        "ĠWor",
        "ld"
      ],
      [
        "ura",
        "cy"
      ],
      [
        "it",
        "le"
      ],
      [
        "Ġw",
        "on"
      ],
      [
        "Ġb",
        "ud"
      ],
      [
        "ĠS",
        "m"
      ],
      [
        "Ġmo",
        "b"
      ],
      [
        "Ġ1",
        "8"
      ],
      [
        "Ġt",
        "ables"
      ],
      [
        "Ġfoll",
        "ow"
      ],
      [
        "Ġnetwor",
        "ks"
      ],
      [
        "Ġiss",
        "ue"
      ],
      [
        "l",
        "and"
      ],
      [
        "o",
        "on"
      ],
      [
        "Ġb",
        "ooks"
      ],
      [
        "Ġde",
        "g"
      ],
      [
        "Ġv",
        "ide"
      ],
      [
        "ĠM",
        "y"
      ],
      [
        "Ġadvant",
        "ages"
      ],
      [
        "n",
        "ed"
      ],
      [
        "Ġre",
        "ce"
      ],
      [
        "Ġide",
        "a"
      ],
      [
        "Ġrest",
        "aur"
      ],
      [
        "Ġeasi",
        "er"
      ],
      [
        "t",
        "on"
      ],
      [
        "Ġn",
        "on"
      ],
      [
        "ter",
        "m"
      ],
      [
        "b",
        "e"
      ],
      [
        "Ġm",
        "yst"
      ],
      [
        "ang",
        "er"
      ],
      [
        "Ġpos",
        "ition"
      ],
      [
        "Ġapplic",
        "ation"
      ],
      [
        "Ġinsi",
        "gh"
      ],
      [
        "w",
        "w"
      ],
      [
        "Ġcoll",
        "abor"
      ],
      [
        "Ġvie",
        "w"
      ],
      [
        "ser",
        "v"
      ],
      [
        "Ġst",
        "ars"
      ],
      [
        "Ġfe",
        "ature"
      ],
      [
        "Ġsa",
        "ve"
      ],
      [
        "Ġt",
        "ree"
      ],
      [
        "Ġd",
        "a"
      ],
      [
        "Ġh",
        "ot"
      ],
      [
        "Ġim",
        "pl"
      ],
      [
        "Ġrecogn",
        "ition"
      ],
      [
        "ĠL",
        "ear"
      ],
      [
        "Ġan",
        "other"
      ],
      [
        "ic",
        "les"
      ],
      [
        "Ġcharact",
        "ers"
      ],
      [
        "Ġbeaut",
        "iful"
      ],
      [
        "id",
        "ence"
      ],
      [
        "Ġtechnolog",
        "ies"
      ],
      [
        "Ġstreng",
        "th"
      ],
      [
        "Ġs",
        "atis"
      ],
      [
        "Ġse",
        "con"
      ],
      [
        "ĠC",
        "al"
      ],
      [
        "Ġde",
        "b"
      ],
      [
        "Ġex",
        "ist"
      ],
      [
        "ĠD",
        "ata"
      ],
      [
        "Ġro",
        "le"
      ],
      [
        "Ġche",
        "ck"
      ],
      [
        "Ġacc",
        "uracy"
      ],
      [
        "ĠTe",
        "chn"
      ],
      [
        "Ġpr",
        "ices"
      ],
      [
        "Ġve",
        "h"
      ],
      [
        "he",
        "ad"
      ],
      [
        "Ġevery",
        "one"
      ],
      [
        "a",
        "pt"
      ],
      [
        "o",
        "f"
      ],
      [
        "Ġ",
        "ri"
      ],
      [
        "ĠFurther",
        "more"
      ],
      [
        "ak",
        "en"
      ],
      [
        "il",
        "ar"
      ],
      [
        "Ġoff",
        "ers"
      ],
      [
        "re",
        "me"
      ],
      [
        "Ġper",
        "fect"
      ],
      [
        "Ġpl",
        "ants"
      ],
      [
        "Ġdire",
        "ct"
      ],
      [
        "ĠĠĠĠ",
        "ĠĠĠĠĠĠĠ"
      ],
      [
        "Ġplan",
        "et"
      ],
      [
        "Ġrelationship",
        "s"
      ],
      [
        "5",
        "0"
      ],
      [
        "Ġimp",
        "lement"
      ],
      [
        "Ġsim",
        "ple"
      ],
      [
        "al",
        "ing"
      ],
      [
        "Ġmeas",
        "ure"
      ],
      [
        "ull",
        "y"
      ],
      [
        "Ġcon",
        "d"
      ],
      [
        "ĠO",
        "ut"
      ],
      [
        "Ġj",
        "o"
      ],
      [
        "a",
        "ign"
      ],
      [
        "id",
        "ed"
      ],
      [
        "Ġeng",
        "age"
      ],
      [
        "l",
        "t"
      ],
      [
        "om",
        "ing"
      ],
      [
        "Ġing",
        "redients"
      ],
      [
        "ra",
        "ms"
      ],
      [
        "Ġdesign",
        "ed"
      ],
      [
        "ĠInd",
        "ia"
      ],
      [
        "Ġmot",
        "iv"
      ],
      [
        "Ġa",
        "ssistant"
      ],
      [
        "as",
        "k"
      ],
      [
        "ĠA",
        "ll"
      ],
      [
        "ur",
        "y"
      ],
      [
        "oy",
        "al"
      ],
      [
        "Ġb",
        "row"
      ],
      [
        "ic",
        "ial"
      ],
      [
        "Ġl",
        "if"
      ],
      [
        "Ġ",
        "z"
      ],
      [
        "Ġcon",
        "vers"
      ],
      [
        "Ġwee",
        "k"
      ],
      [
        "ĠĠ",
        "čĊ"
      ],
      [
        "y",
        "n"
      ],
      [
        "Ġh",
        "ours"
      ],
      [
        "Ġre",
        "d"
      ],
      [
        "Ġdiffer",
        "ences"
      ],
      [
        "Ġproduct",
        "ion"
      ],
      [
        "Ġdi",
        "et"
      ],
      [
        "Ġbud",
        "get"
      ],
      [
        "Ġc",
        "irc"
      ],
      [
        "Ġeasi",
        "ly"
      ],
      [
        "b",
        "s"
      ],
      [
        "Ġs",
        "qu"
      ],
      [
        "ord",
        "ing"
      ],
      [
        "Ġex",
        "ce"
      ],
      [
        "Ġc",
        "ell"
      ],
      [
        "it",
        "ch"
      ],
      [
        "ra",
        "st"
      ],
      [
        "ĠW",
        "ar"
      ],
      [
        "Ġfl",
        "ow"
      ],
      [
        "Ġexperi",
        "ences"
      ],
      [
        "ot",
        "s"
      ],
      [
        "th",
        "ing"
      ],
      [
        "Ġpre",
        "vent"
      ],
      [
        "Ġpol",
        "it"
      ],
      [
        "Ġsal",
        "es"
      ],
      [
        "Ġsit",
        "uation"
      ],
      [
        "s",
        "c"
      ],
      [
        "Ġp",
        "ort"
      ],
      [
        "or",
        "age"
      ],
      [
        "Ġresp",
        "ect"
      ],
      [
        "Ġsever",
        "al"
      ],
      [
        "Ġassoci",
        "ated"
      ],
      [
        "ar",
        "r"
      ],
      [
        "Ġcamp",
        "aign"
      ],
      [
        "c",
        "ome"
      ],
      [
        "g",
        "en"
      ],
      [
        "Ġm",
        "akes"
      ],
      [
        "Ġd",
        "one"
      ],
      [
        "Ġh",
        "ab"
      ],
      [
        "Ġcont",
        "rib"
      ],
      [
        "ang",
        "le"
      ],
      [
        "Ġtru",
        "e"
      ],
      [
        "Ġdes",
        "cribe"
      ],
      [
        "Ġmob",
        "ile"
      ],
      [
        "d",
        "om"
      ],
      [
        "ul",
        "es"
      ],
      [
        "Ġ",
        "ut"
      ],
      [
        "Ġapp",
        "ropriate"
      ],
      [
        "Ġf",
        "ru"
      ],
      [
        "ac",
        "ks"
      ],
      [
        "Ġca",
        "pt"
      ],
      [
        "Ġ",
        "ill"
      ],
      [
        "Ġsum",
        "mer"
      ],
      [
        "Ġchalleng",
        "es"
      ],
      [
        "g",
        "ed"
      ],
      [
        "Ġanim",
        "al"
      ],
      [
        "Ġfact",
        "ors"
      ],
      [
        "in",
        "king"
      ],
      [
        "Ġw",
        "ent"
      ],
      [
        "Ġcompon",
        "ents"
      ],
      [
        "Ġc",
        "our"
      ],
      [
        "Ġan",
        "t"
      ],
      [
        "Ġdec",
        "re"
      ],
      [
        "ĠCom",
        "pare"
      ],
      [
        "Ġdev",
        "ices"
      ],
      [
        "Ġsaf",
        "ety"
      ],
      [
        "Ġf",
        "aster"
      ],
      [
        "ĠE",
        "u"
      ],
      [
        "Ġprog",
        "ress"
      ],
      [
        "Ġpat",
        "h"
      ],
      [
        "Ġris",
        "ks"
      ],
      [
        "f",
        "l"
      ],
      [
        "Ġp",
        "and"
      ],
      [
        "er",
        "n"
      ],
      [
        "ĠM",
        "achine"
      ],
      [
        "Ġteas",
        "poon"
      ],
      [
        "d",
        "o"
      ],
      [
        "Ġb",
        "ig"
      ],
      [
        "Ġyour",
        "self"
      ],
      [
        "imate",
        "ly"
      ],
      [
        "Ġs",
        "ince"
      ],
      [
        "ĠS",
        "e"
      ],
      [
        "Ġbl",
        "ock"
      ],
      [
        "Ġpract",
        "ice"
      ],
      [
        "Ġveget",
        "ables"
      ],
      [
        "I",
        "t"
      ],
      [
        "Ġo",
        "cean"
      ],
      [
        "ĠR",
        "ed"
      ],
      [
        "Ġsol",
        "ve"
      ],
      [
        "ĠCon",
        "struct"
      ],
      [
        "Ġmon",
        "it"
      ],
      [
        "Ġl",
        "oyal"
      ],
      [
        "ac",
        "her"
      ],
      [
        "Ġsoc",
        "iety"
      ],
      [
        "Ġinn",
        "ov"
      ],
      [
        "or",
        "k"
      ],
      [
        "ĠS",
        "um"
      ],
      [
        "Ġtra",
        "ining"
      ],
      [
        "ĠU",
        "se"
      ],
      [
        "ĠP",
        "h"
      ],
      [
        "Ġsol",
        "ar"
      ],
      [
        "Ġdev",
        "ice"
      ],
      [
        "Ġp",
        "ut"
      ],
      [
        "am",
        "ple"
      ],
      [
        "Ġwh",
        "ite"
      ],
      [
        "ore",
        "d"
      ],
      [
        "Ġpr",
        "im"
      ],
      [
        "Ġlike",
        "ly"
      ],
      [
        "Ġneg",
        "ative"
      ],
      [
        "ĠLear",
        "ning"
      ],
      [
        "in",
        "ter"
      ],
      [
        "au",
        "gh"
      ],
      [
        "ĠArt",
        "ificial"
      ],
      [
        "yth",
        "on"
      ],
      [
        "im",
        "um"
      ],
      [
        "ren",
        "cy"
      ],
      [
        "Ġpri",
        "or"
      ],
      [
        "Ġmag",
        "ical"
      ],
      [
        "um",
        "e"
      ],
      [
        "ĠTh",
        "ree"
      ],
      [
        "Ġsho",
        "pping"
      ],
      [
        "se",
        "qu"
      ],
      [
        "ĠS",
        "et"
      ],
      [
        "he",
        "st"
      ],
      [
        "Ġreg",
        "ul"
      ],
      [
        "Ġexerc",
        "ise"
      ],
      [
        "p",
        "re"
      ],
      [
        "ly",
        "ing"
      ],
      [
        "Ġsu",
        "per"
      ],
      [
        "ep",
        "end"
      ],
      [
        "Ġvis",
        "ual"
      ],
      [
        "Ġenc",
        "oura"
      ],
      [
        "Ġdem",
        "and"
      ],
      [
        "c",
        "er"
      ],
      [
        "d",
        "le"
      ],
      [
        "m",
        "on"
      ],
      [
        "Ġd",
        "ivid"
      ],
      [
        "Ġne",
        "ural"
      ],
      [
        "Ġpl",
        "ant"
      ],
      [
        "at",
        "ility"
      ],
      [
        "Ġst",
        "orage"
      ],
      [
        "ĠP",
        "e"
      ],
      [
        "Ġad",
        "just"
      ],
      [
        "Ġto",
        "wn"
      ],
      [
        "ĠC",
        "ar"
      ],
      [
        "Ġint",
        "eg"
      ],
      [
        "Ġcar",
        "s"
      ],
      [
        "Ġcorre",
        "ct"
      ],
      [
        "b",
        "ility"
      ],
      [
        "Ġsaf",
        "e"
      ],
      [
        "a",
        "sic"
      ],
      [
        "Ġanaly",
        "ze"
      ],
      [
        "pr",
        "int"
      ],
      [
        "Ġpurch",
        "ase"
      ],
      [
        "g",
        "round"
      ],
      [
        "i",
        "k"
      ],
      [
        "an",
        "a"
      ],
      [
        "ud",
        "e"
      ],
      [
        "hes",
        "is"
      ],
      [
        "Ġrele",
        "vant"
      ],
      [
        "r",
        "or"
      ],
      [
        "Ġcom",
        "fort"
      ],
      [
        "Ġter",
        "ms"
      ],
      [
        "Ġmom",
        "ent"
      ],
      [
        "rop",
        "e"
      ],
      [
        "Ġsl",
        "ow"
      ],
      [
        "Ġrun",
        "ning"
      ],
      [
        "Ġt",
        "akes"
      ],
      [
        "Ġm",
        "ountain"
      ],
      [
        "om",
        "an"
      ],
      [
        "Ġexp",
        "ress"
      ],
      [
        "Ġrequ",
        "ires"
      ],
      [
        "Ġf",
        "elt"
      ],
      [
        "Ġre",
        "si"
      ],
      [
        "am",
        "m"
      ],
      [
        "ĠA",
        "ut"
      ],
      [
        "Ġemploy",
        "ees"
      ],
      [
        "Ġpand",
        "emic"
      ],
      [
        "ist",
        "ics"
      ],
      [
        "struct",
        "ion"
      ],
      [
        "Ġinc",
        "ome"
      ],
      [
        "Ġpolic",
        "y"
      ],
      [
        "n",
        "y"
      ],
      [
        "Ġp",
        "ark"
      ],
      [
        "Ġg",
        "ar"
      ],
      [
        "Ġst",
        "e"
      ],
      [
        "Ġsim",
        "ilar"
      ],
      [
        "Ġc",
        "ourage"
      ],
      [
        "or",
        "row"
      ],
      [
        "Ġre",
        "volution"
      ],
      [
        "end",
        "er"
      ],
      [
        "=",
        "\""
      ],
      [
        "b",
        "o"
      ],
      [
        "Ġdevelop",
        "ing"
      ],
      [
        "u",
        "nd"
      ],
      [
        "Ġhelp",
        "ing"
      ],
      [
        "Ġro",
        "om"
      ],
      [
        "Ġcreat",
        "ed"
      ],
      [
        "y",
        "nt"
      ],
      [
        "it",
        "ation"
      ],
      [
        "et",
        "ic"
      ],
      [
        "ĠP",
        "r"
      ],
      [
        "ĠR",
        "ec"
      ],
      [
        "b",
        "all"
      ],
      [
        "r",
        "ate"
      ],
      [
        "Ġex",
        "ch"
      ],
      [
        "ib",
        "ility"
      ],
      [
        "Ġref",
        "lect"
      ],
      [
        "Ġsustain",
        "able"
      ],
      [
        "in",
        "al"
      ],
      [
        "iz",
        "ations"
      ],
      [
        "Ġcont",
        "rast"
      ],
      [
        "Ġsm",
        "art"
      ],
      [
        "Ġext",
        "reme"
      ],
      [
        "Ġobject",
        "s"
      ],
      [
        "ĠEu",
        "rope"
      ],
      [
        "Ġl",
        "ack"
      ],
      [
        "um",
        "p"
      ],
      [
        "ĠM",
        "on"
      ],
      [
        "Ġmat",
        "ter"
      ],
      [
        "Ġp",
        "ers"
      ],
      [
        "assi",
        "on"
      ],
      [
        "e",
        "ch"
      ],
      [
        "ot",
        "t"
      ],
      [
        "oo",
        "se"
      ],
      [
        "Ġm",
        "illion"
      ],
      [
        "Ġd",
        "r"
      ],
      [
        "ry",
        "pt"
      ],
      [
        "Ġtr",
        "ust"
      ],
      [
        "lu",
        "sion"
      ],
      [
        "Ġtemper",
        "atures"
      ],
      [
        "n",
        "ot"
      ],
      [
        "ent",
        "ion"
      ],
      [
        "Ġg",
        "round"
      ],
      [
        "Ġdisc",
        "over"
      ],
      [
        "Ġda",
        "ily"
      ],
      [
        "qu",
        "id"
      ],
      [
        "Ġr",
        "ise"
      ],
      [
        "ac",
        "hes"
      ],
      [
        "Ġeng",
        "aging"
      ],
      [
        "Ġegg",
        "s"
      ],
      [
        "Ġin",
        "it"
      ],
      [
        "Ġex",
        "ec"
      ],
      [
        "ight",
        "s"
      ],
      [
        "Ġmar",
        "gin"
      ],
      [
        "Ġb",
        "ar"
      ],
      [
        "Ġm",
        "ight"
      ],
      [
        "Ġg",
        "en"
      ],
      [
        "ir",
        "l"
      ],
      [
        "Ġse",
        "ll"
      ],
      [
        "Ġdec",
        "ided"
      ],
      [
        "ĠCom",
        "p"
      ],
      [
        "Ġpain",
        "ting"
      ],
      [
        "it",
        "able"
      ],
      [
        "Ġf",
        "ig"
      ],
      [
        "Ġgo",
        "al"
      ],
      [
        "Ġph",
        "one"
      ],
      [
        "Ġh",
        "y"
      ],
      [
        "Ġar",
        "r"
      ],
      [
        "duct",
        "ion"
      ],
      [
        "Ġinvol",
        "ve"
      ],
      [
        "Ġsupp",
        "ly"
      ],
      [
        "Ġm",
        "id"
      ],
      [
        "ic",
        "ations"
      ],
      [
        "ĠD",
        "o"
      ],
      [
        "Ġli",
        "quid"
      ],
      [
        "Ġrec",
        "ip"
      ],
      [
        "n",
        "um"
      ],
      [
        "Ġf",
        "avor"
      ],
      [
        "ĠC",
        "ome"
      ],
      [
        "Ġso",
        "on"
      ],
      [
        "cri",
        "pt"
      ],
      [
        "z",
        "ing"
      ],
      [
        "Ġp",
        "ow"
      ],
      [
        "Ġb",
        "asic"
      ],
      [
        "ir",
        "d"
      ],
      [
        "ĠQ",
        "u"
      ],
      [
        "Ġsecon",
        "d"
      ],
      [
        "Â",
        "°"
      ],
      [
        "Ġen",
        "ab"
      ],
      [
        "ĠB",
        "l"
      ],
      [
        "Ġcult",
        "ure"
      ],
      [
        ":",
        "//"
      ],
      [
        "av",
        "a"
      ],
      [
        "Ġstr",
        "ing"
      ],
      [
        "Ġno",
        "vel"
      ],
      [
        "p",
        "os"
      ],
      [
        "Ġt",
        "aken"
      ],
      [
        "Ġh",
        "ope"
      ],
      [
        "ch",
        "ain"
      ],
      [
        "Ġor",
        "ig"
      ],
      [
        "Ġtra",
        "c"
      ],
      [
        "Ġtop",
        "ic"
      ],
      [
        "o",
        "ice"
      ],
      [
        "Ġw",
        "ild"
      ],
      [
        "Ġev",
        "al"
      ],
      [
        "yc",
        "le"
      ],
      [
        "oc",
        "ks"
      ],
      [
        "Ġdis",
        "play"
      ],
      [
        "Ġtest",
        "ing"
      ],
      [
        "Ġsug",
        "ar"
      ],
      [
        "Ġdatab",
        "ase"
      ],
      [
        "ĠT",
        "wo"
      ],
      [
        "ra",
        "in"
      ],
      [
        "Ġfor",
        "ward"
      ],
      [
        "on",
        "om"
      ],
      [
        "Ġw",
        "ar"
      ],
      [
        "Ġr",
        "out"
      ],
      [
        "Ġse",
        "em"
      ],
      [
        "Ġcomput",
        "ers"
      ],
      [
        "Ġa",
        "ware"
      ],
      [
        "Ġquest",
        "ion"
      ],
      [
        "c",
        "hed"
      ],
      [
        "s",
        "ol"
      ],
      [
        "Ġlar",
        "ger"
      ],
      [
        "Ġpersonal",
        "ized"
      ],
      [
        "e",
        "xt"
      ],
      [
        "ĠT",
        "ake"
      ],
      [
        "Ġun",
        "i"
      ],
      [
        "Ġra",
        "d"
      ],
      [
        "Ġopt",
        "ion"
      ],
      [
        "Ġf",
        "resh"
      ],
      [
        "Ġpartic",
        "ular"
      ],
      [
        "Ġaud",
        "ience"
      ],
      [
        "Ġst",
        "ates"
      ],
      [
        "Ġim",
        "m"
      ],
      [
        "Ġconnect",
        "ed"
      ],
      [
        "Ġcond",
        "itions"
      ],
      [
        "1",
        "2"
      ],
      [
        "f",
        "ully"
      ],
      [
        "Ġc",
        "rit"
      ],
      [
        "ou",
        "th"
      ],
      [
        "Ġcont",
        "act"
      ],
      [
        "Ġpre",
        "fer"
      ],
      [
        "Ġachie",
        "ve"
      ],
      [
        "Ġp",
        "et"
      ],
[...]
